<unk>	0
<pad>	0
.	0
!	0
?	0
,	0
'	0
s	-2.20303
▁	-2.3791
e	-3.45581
a	-4.11808
er	-4.12385
d	-4.17206
ing	-4.33223
t	-4.3438
y	-4.3604
ed	-4.45677
o	-4.69802
in	-4.7096
i	-4.73412
n	-5.08477
ly	-5.09039
es	-5.17136
en	-5.17239
an	-5.38147
on	-5.45353
al	-5.47976
le	-5.49373
k	-5.56518
r	-5.64858
g	-5.73835
l	-5.75426
or	-5.76317
el	-5.80125
us	-5.84767
▁un	-5.87973
p	-5.89556
u	-5.89666
h	-5.89678
m	-5.94217
man	-5.95231
ion	-5.98934
c	-5.9903
ness	-6.03804
ton	-6.06766
is	-6.10185
ie	-6.12872
z	-6.1427
ar	-6.14907
et	-6.18847
ic	-6.20102
re	-6.22654
f	-6.30198
um	-6.31784
ia	-6.33929
ian	-6.35173
est	-6.37598
ur	-6.43007
ch	-6.43244
ley	-6.4459
th	-6.48126
ation	-6.49228
it	-6.49864
ne	-6.50594
na	-6.51737
b	-6.54901
il	-6.5751
son	-6.61901
ro	-6.62646
ra	-6.64308
ri	-6.68385
ant	-6.68731
eth	-6.68899
▁re	-6.69237
ter	-6.69684
at	-6.70352
ent	-6.70453
am	-6.71558
ling	-6.71848
ry	-6.75647
▁de	-6.76261
ard	-6.76338
ish	-6.77398
men	-6.77443
ta	-6.77906
ist	-6.78503
te	-6.79922
land	-6.80479
ment	-6.81183
ah	-6.81567
li	-6.81639
less	-6.82411
ies	-6.85563
ine	-6.86123
w	-6.86816
la	-6.8741
id	-6.88828
by	-6.91105
ka	-6.91748
ful	-6.92014
ll	-6.92808
co	-6.93038
ma	-6.94886
able	-6.95053
ce	-6.95713
ville	-6.95823
ous	-6.96401
ot	-6.98381
ham	-6.98614
ge	-7.00294
▁o	-7.01267
▁mar	-7.01272
x	-7.05687
ul	-7.05712
ol	-7.07215
ism	-7.07988
ha	-7.1007
ac	-7.10096
ier	-7.11339
den	-7.11522
ate	-7.12147
lin	-7.13128
ford	-7.14575
▁mo	-7.17109
ke	-7.17152
ir	-7.19658
ve	-7.19742
▁be	-7.20292
lo	-7.20589
v	-7.21675
▁ma	-7.21766
me	-7.21854
ty	-7.22012
ey	-7.22766
age	-7.24056
ell	-7.24498
▁car	-7.24846
em	-7.24866
ti	-7.25062
ler	-7.25142
ck	-7.26609
▁bo	-7.2785
▁he	-7.29123
un	-7.29471
▁ca	-7.30031
ity	-7.3116
che	-7.31204
to	-7.31412
ive	-7.32459
que	-7.33534
vi	-7.33595
▁ha	-7.34988
▁me	-7.35072
im	-7.37086
ut	-7.37188
ett	-7.3759
▁co	-7.38864
ak	-7.39087
wood	-7.39111
be	-7.39391
▁po	-7.40758
ver	-7.40953
well	-7.40975
ig	-7.41666
▁m	-7.41752
om	-7.44108
▁l	-7.44836
kin	-7.44837
go	-7.45296
no	-7.4556
▁ho	-7.45838
▁con	-7.46619
field	-7.46932
ner	-7.47111
ni	-7.47639
led	-7.47748
▁per	-7.48494
ow	-7.49315
ou	-7.49459
bo	-7.4955
▁la	-7.4957
▁pe	-7.51201
▁ro	-7.51404
ca	-7.51974
ba	-7.52568
▁bar	-7.53017
da	-7.53251
ette	-7.54019
▁jo	-7.54025
all	-7.55261
▁pa	-7.56095
way	-7.57268
va	-7.57299
▁par	-7.57614
▁lo	-7.57949
ger	-7.58224
▁over	-7.58361
don	-7.59376
ff	-7.59563
ius	-7.60057
ance	-7.60097
ga	-7.60258
ship	-7.60885
mer	-7.62244
▁ba	-7.62579
▁go	-7.62594
ted	-7.64265
tic	-7.64269
ci	-7.64575
▁pre	-7.65944
▁ar	-7.66355
ther	-7.66427
▁we	-7.67734
▁ab	-7.68055
ney	-7.68217
ill	-7.68437
mo	-7.70031
▁mor	-7.71642
▁cor	-7.72128
▁pi	-7.72173
io	-7.72388
ph	-7.73456
au	-7.73695
ina	-7.73863
▁le	-7.74822
do	-7.74871
ron	-7.74986
ab	-7.75259
berg	-7.75767
▁mal	-7.75812
he	-7.76554
iz	-7.78595
▁fo	-7.78725
ities	-7.79154
▁har	-7.79535
worth	-7.79733
our	-7.80836
ally	-7.81096
art	-7.8135
ite	-7.81765
tch	-7.8177
ward	-7.81808
ists	-7.82202
more	-7.82677
▁out	-7.8316
▁du	-7.84367
op	-7.84545
ster	-7.84754
mi	-7.85008
▁dis	-7.85388
▁vi	-7.85467
bury	-7.85908
▁ver	-7.85912
▁no	-7.86134
ana	-7.86145
wa	-7.86227
▁pro	-7.86626
stone	-7.86866
low	-7.87277
chi	-7.87356
ach	-7.87639
▁sch	-7.87666
dale	-7.87679
let	-7.87736
▁gu	-7.87747
▁ne	-7.88044
mar	-7.89109
tz	-7.89283
ki	-7.89469
per	-7.89606
gan	-7.89737
j	-7.89826
▁do	-7.89877
▁ka	-7.89913
zi	-7.90254
ated	-7.91057
mann	-7.9216
ze	-7.9238
▁p	-7.92569
▁wa	-7.92578
ical	-7.92824
pa	-7.92957
ven	-7.92991
ez	-7.93437
ang	-7.93566
▁mac	-7.93948
▁va	-7.94155
ko	-7.94183
ington	-7.94631
ence	-7.94764
end	-7.95451
ja	-7.95558
bi	-7.95584
qui	-7.95893
▁bel	-7.96233
▁fe	-7.9659
▁to	-7.96666
ble	-7.97526
mon	-7.97527
ag	-7.97727
po	-7.98213
ud	-7.98795
ny	-7.98854
ring	-7.99872
▁tre	-7.9998
ary	-8.00045
▁am	-8.003
ber	-8.00379
tor	-8.0089
▁man	-8.00893
za	-8.01705
ick	-8.01976
▁mis	-8.04002
oo	-8.0458
▁cha	-8.04642
▁ni	-8.04704
pe	-8.04897
her	-8.05002
▁li	-8.05091
off	-8.052
eau	-8.0524
ru	-8.05313
mont	-8.05353
▁inter	-8.0537
▁g	-8.06441
ub	-8.06473
ov	-8.06988
▁mon	-8.07143
▁b	-8.07265
▁tri	-8.07518
if	-8.08379
▁da	-8.08648
▁ex	-8.08677
lu	-8.08992
▁bre	-8.09032
town	-8.09304
▁cre	-8.09638
▁fi	-8.09843
▁gar	-8.10552
▁ko	-8.10618
ure	-8.10738
like	-8.10761
▁bi	-8.10785
▁gi	-8.1089
car	-8.10942
▁te	-8.11112
▁bu	-8.11116
house	-8.12127
gi	-8.12184
ker	-8.12379
▁pen	-8.12599
han	-8.12601
▁mel	-8.12826
bert	-8.13232
▁su	-8.13319
ik	-8.13756
▁val	-8.14434
▁mat	-8.14503
ap	-8.14881
ically	-8.14985
▁vo	-8.15092
ement	-8.15103
▁ru	-8.15248
▁so	-8.15314
iness	-8.1544
ating	-8.16073
ip	-8.16118
▁sh	-8.16465
hu	-8.16895
ran	-8.17108
▁di	-8.17116
▁mer	-8.17504
▁sal	-8.1774
red	-8.17772
▁hu	-8.17932
pi	-8.18424
▁com	-8.18559
qu	-8.18906
win	-8.19269
head	-8.19685
ium	-8.20075
wick	-8.2008
▁ve	-8.20193
ize	-8.20336
ized	-8.20407
▁mus	-8.20532
gue	-8.20858
ious	-8.21332
rin	-8.21445
ator	-8.21581
▁fu	-8.21622
the	-8.21946
ski	-8.22104
▁dar	-8.22421
▁pu	-8.22482
jo	-8.22647
▁ben	-8.22781
▁cal	-8.22785
▁ber	-8.22817
tra	-8.2283
vo	-8.22844
▁bur	-8.23038
ric	-8.23308
▁under	-8.23619
▁ri	-8.23749
▁col	-8.23898
tion	-8.23914
▁her	-8.24009
▁clo	-8.24127
▁bal	-8.24234
▁del	-8.24724
▁sar	-8.24766
▁tar	-8.24891
▁ke	-8.25306
vin	-8.25394
▁far	-8.25424
▁ga	-8.25469
▁che	-8.25534
▁ad	-8.25584
▁imp	-8.25707
ade	-8.25817
gen	-8.26276
val	-8.27084
▁pan	-8.27462
▁dor	-8.2759
▁dun	-8.27821
▁gra	-8.28154
▁cur	-8.28167
cy	-8.28235
▁na	-8.28263
▁mil	-8.2871
▁war	-8.28765
line	-8.29009
up	-8.29092
▁lu	-8.29187
ho	-8.29209
▁for	-8.29248
▁gro	-8.29516
▁cro	-8.30315
out	-8.30358
cha	-8.30371
burg	-8.30409
bar	-8.30511
gar	-8.30624
ily	-8.30813
▁sea	-8.30929
port	-8.30933
▁gri	-8.31321
uk	-8.31574
▁c	-8.31598
▁chi	-8.31636
ries	-8.31761
▁fore	-8.31791
ten	-8.32288
side	-8.3238
▁ki	-8.32465
ile	-8.32549
elle	-8.32549
▁ja	-8.33325
lock	-8.33375
▁bra	-8.33538
cher	-8.33726
hi	-8.33852
ji	-8.33883
ev	-8.33925
ini	-8.34227
▁min	-8.34342
gh	-8.34926
ith	-8.35476
ille	-8.35501
▁mont	-8.35582
lay	-8.35659
og	-8.35939
▁ra	-8.36213
ib	-8.36415
ide	-8.36505
lan	-8.3663
▁bor	-8.36635
tre	-8.36657
▁pur	-8.36678
can	-8.3673
illa	-8.36785
sky	-8.36854
cu	-8.37154
▁hi	-8.3787
we	-8.3798
ari	-8.38259
▁ge	-8.38352
shaw	-8.38545
burn	-8.38671
▁the	-8.38805
ath	-8.38915
▁hol	-8.39375
▁ta	-8.39384
▁red	-8.3956
ola	-8.39711
chen	-8.39904
▁all	-8.40639
▁wal	-8.40708
ng	-8.40848
sey	-8.40856
▁gal	-8.40884
aw	-8.40909
▁pol	-8.4097
ita	-8.41559
▁pal	-8.41843
con	-8.4209
▁ju	-8.42161
ock	-8.42201
ara	-8.42331
▁vol	-8.42424
cle	-8.42675
▁black	-8.42805
ire	-8.43384
▁wo	-8.43445
oc	-8.4354
nt	-8.4376
ek	-8.43842
ice	-8.43912
▁cat	-8.44042
▁new	-8.44084
▁tu	-8.44384
ok	-8.44558
mp	-8.44575
▁comp	-8.45056
ino	-8.45116
ix	-8.45345
▁dur	-8.45444
▁ram	-8.45834
oon	-8.45996
▁mag	-8.46254
ial	-8.46305
ress	-8.46392
▁bon	-8.46693
▁je	-8.47073
▁god	-8.47233
eur	-8.47424
▁gre	-8.47578
▁char	-8.47586
▁pat	-8.47827
pin	-8.48044
▁lan	-8.48106
▁bell	-8.48149
and	-8.48244
bridge	-8.48251
▁cu	-8.48462
▁dan	-8.48585
▁mill	-8.48953
▁cap	-8.48981
▁fri	-8.49126
▁bla	-8.49344
▁port	-8.49374
lie	-8.49728
▁mad	-8.49848
▁nor	-8.50031
▁sand	-8.50413
ef	-8.50466
▁pra	-8.50556
▁up	-8.50653
▁sw	-8.50752
▁mi	-8.50803
uc	-8.51133
▁ap	-8.51189
je	-8.51663
mb	-8.51981
ative	-8.52032
some	-8.52234
▁can	-8.52316
ack	-8.52343
▁sol	-8.52402
▁tor	-8.52417
▁v	-8.52703
ast	-8.52837
cott	-8.52872
zo	-8.529
ida	-8.53044
▁han	-8.53274
lon	-8.53389
rie	-8.53627
▁fin	-8.53653
▁w	-8.53719
▁sub	-8.5399
▁ger	-8.53995
of	-8.54314
bre	-8.54323
▁ku	-8.54405
▁ros	-8.54459
ave	-8.547
▁kil	-8.5478
▁tur	-8.54901
court	-8.54938
▁ten	-8.5514
ada	-8.55581
unt	-8.55879
fer	-8.56105
▁win	-8.5647
tin	-8.56619
▁mu	-8.56792
leigh	-8.57003
borough	-8.57038
▁za	-8.57106
day	-8.57124
▁ti	-8.57326
ail	-8.57368
ella	-8.57371
ano	-8.57762
▁qua	-8.58401
▁nu	-8.58461
itch	-8.58508
▁wil	-8.58705
iest	-8.58737
ani	-8.58943
har	-8.58978
bel	-8.59099
▁hal	-8.59378
▁grand	-8.59458
▁pin	-8.59661
▁may	-8.59831
▁stra	-8.59935
uch	-8.59953
▁long	-8.60121
ban	-8.60137
▁fer	-8.60303
gu	-8.60708
▁sto	-8.60728
ado	-8.60856
ew	-8.60977
▁tro	-8.61067
elli	-8.61352
ata	-8.61358
gate	-8.61498
▁app	-8.61636
▁unre	-8.61751
ula	-8.61921
ong	-8.6213
itt	-8.62299
▁hand	-8.62369
bra	-8.6262
▁qu	-8.62636
horn	-8.62862
▁cra	-8.62879
▁wi	-8.63287
▁she	-8.63347
▁sha	-8.6347
▁glen	-8.63663
ped	-8.6379
▁beau	-8.64042
mond	-8.64061
rick	-8.64138
eck	-8.64186
▁ken	-8.64358
▁hen	-8.64369
▁j	-8.64423
▁bri	-8.64527
ight	-8.64787
ante	-8.6486
▁pot	-8.65222
tus	-8.65299
▁lar	-8.65332
▁fa	-8.6555
▁hy	-8.65763
mit	-8.65767
van	-8.6579
min	-8.65893
dra	-8.65903
▁wood	-8.66186
▁ob	-8.662
lot	-8.66494
vel	-8.66607
▁ind	-8.6665
kins	-8.66802
▁bed	-8.66859
▁kar	-8.66993
aire	-8.67393
ture	-8.67788
stein	-8.68264
ich	-8.68328
ridge	-8.68698
fe	-8.68709
▁ze	-8.68798
ott	-8.68972
work	-8.69177
ingham	-8.69194
▁ste	-8.69327
▁mur	-8.69382
▁sav	-8.69477
▁cru	-8.69723
▁ass	-8.70032
▁tru	-8.70288
▁gran	-8.70588
cent	-8.70676
▁lang	-8.70733
▁fal	-8.7089
▁pri	-8.71122
▁ash	-8.71157
▁kn	-8.71661
air	-8.72013
▁ph	-8.72019
ison	-8.72036
▁hard	-8.72209
vy	-8.72325
room	-8.72436
my	-8.72493
▁kal	-8.72673
yard	-8.72684
cal	-8.72707
▁pla	-8.73012
ug	-8.73251
cus	-8.73373
lett	-8.73566
▁bru	-8.73724
ram	-8.74029
ai	-8.74117
ible	-8.74249
light	-8.74296
▁rep	-8.74304
ash	-8.74343
ju	-8.74567
▁luc	-8.7466
▁green	-8.74697
▁van	-8.74713
▁zo	-8.74747
hurst	-8.74811
▁rec	-8.74958
eb	-8.75177
com	-8.75198
ora	-8.75344
▁star	-8.76035
▁cow	-8.76129
▁sel	-8.76468
▁por	-8.76589
▁reg	-8.77057
mat	-8.77161
ax	-8.77197
▁gil	-8.77304
▁th	-8.77365
shire	-8.77596
▁mah	-8.77693
vil	-8.77838
hr	-8.77885
▁wind	-8.78116
▁cab	-8.78416
hill	-8.7855
boy	-8.78668
istic	-8.78682
ren	-8.78818
nell	-8.79094
nie	-8.79148
▁water	-8.7919
oli	-8.79192
▁cri	-8.79241
ray	-8.79469
dom	-8.79589
ised	-8.79644
▁sen	-8.79656
▁arm	-8.79679
▁fre	-8.79701
ili	-8.79765
tu	-8.79766
ory	-8.79912
ably	-8.79973
time	-8.80041
▁good	-8.80143
▁tw	-8.80558
und	-8.80822
eff	-8.80833
▁hel	-8.80874
▁au	-8.80972
▁yo	-8.81112
▁wy	-8.81194
▁var	-8.81328
qua	-8.8155
▁gold	-8.81632
hood	-8.81858
▁mul	-8.81965
nor	-8.8213
▁scar	-8.82178
▁gor	-8.82218
▁med	-8.82512
uff	-8.82939
▁stan	-8.83108
ole	-8.83253
▁sun	-8.83467
quet	-8.83596
ique	-8.83596
▁anti	-8.83946
▁af	-8.84048
ft	-8.84132
ret	-8.84225
ob	-8.84226
▁san	-8.84493
war	-8.8461
etta	-8.84709
▁fra	-8.84765
aud	-8.85189
▁mass	-8.8536
back	-8.85505
enberg	-8.85526
▁bro	-8.85678
rat	-8.85708
▁gla	-8.85718
cho	-8.85798
▁hor	-8.85929
▁tra	-8.85937
ung	-8.86003
▁dal	-8.8602
heim	-8.86307
yne	-8.86328
▁tha	-8.86409
▁mun	-8.86644
▁bun	-8.87102
over	-8.87226
▁gun	-8.87318
▁post	-8.87318
▁lor	-8.87467
▁ban	-8.87559
ken	-8.87772
bu	-8.87959
oni	-8.88066
▁rad	-8.88078
▁fle	-8.88154
▁jar	-8.88156
▁dam	-8.88165
▁fair	-8.88193
▁tal	-8.88286
rum	-8.88561
eng	-8.88588
lar	-8.88701
combe	-8.88765
ori	-8.88779
old	-8.88818
▁hay	-8.88884
pen	-8.88926
lyn	-8.89132
▁ye	-8.89373
ex	-8.89529
▁sab	-8.89592
▁alb	-8.89697
▁thor	-8.89834
▁west	-8.90117
iti	-8.90141
fa	-8.90291
▁sta	-8.90478
comb	-8.90532
▁ya	-8.90652
bell	-8.90709
▁int	-8.91265
ec	-8.91274
lop	-8.91423
▁unc	-8.9163
board	-8.91811
▁mid	-8.91883
▁fla	-8.91934
▁barr	-8.9203
▁cam	-8.92135
try	-8.92157
ello	-8.92166
▁fan	-8.92275
▁scr	-8.92358
nce	-8.92459
▁fro	-8.92537
lip	-8.92653
▁lav	-8.9281
dder	-8.93107
ddy	-8.9339
var	-8.93574
och	-8.93578
▁ven	-8.93616
att	-8.93618
ister	-8.93786
▁gen	-8.9404
▁spr	-8.94152
▁will	-8.94404
▁tim	-8.94463
dar	-8.94607
▁mari	-8.9461
water	-8.94801
zen	-8.95191
pan	-8.95333
fi	-8.95663
nel	-8.95914
bit	-8.96101
▁cad	-8.96115
wyn	-8.96273
▁super	-8.96377
brook	-8.96395
rous	-8.96463
iere	-8.96647
▁eg	-8.9694
oth	-8.97171
ddle	-8.97177
berry	-8.97177
cious	-8.97187
ander	-8.97194
ura	-8.97216
▁dol	-8.97252
ites	-8.97348
master	-8.97356
row	-8.97367
▁corn	-8.97373
▁buck	-8.97558
▁ast	-8.97577
▁coll	-8.97632
▁cast	-8.97845
▁bow	-8.97849
▁pass	-8.97899
▁fur	-8.98133
▁my	-8.98152
foot	-8.98397
▁how	-8.9845
▁bab	-8.98506
▁rou	-8.98891
stead	-8.99087
tri	-8.99114
ena	-8.99323
▁blo	-8.99329
gin	-8.99345
▁fen	-8.9939
▁ann	-8.99526
maker	-8.99548
ala	-8.99651
▁head	-9.00026
az	-9.0012
▁len	-9.00512
tail	-9.00944
▁spe	-9.01229
▁kan	-9.01266
gel	-9.01339
▁pap	-9.01505
stan	-9.01575
▁jan	-9.01865
ified	-9.02203
liness	-9.02454
onian	-9.02523
ox	-9.0269
ification	-9.02726
▁cle	-9.02767
ky	-9.02937
▁kat	-9.02971
▁barb	-9.02986
bro	-9.03423
▁para	-9.03545
▁tit	-9.03585
hor	-9.03738
ku	-9.03905
▁cock	-9.04054
▁chal	-9.04066
▁asp	-9.04192
chin	-9.04328
▁kor	-9.04611
▁ren	-9.04916
rac	-9.05151
▁court	-9.05159
▁ball	-9.052
▁att	-9.05477
par	-9.05598
chester	-9.05637
▁ev	-9.05808
aba	-9.05962
▁alt	-9.06279
▁don	-9.06586
▁dre	-9.06653
▁whit	-9.06702
▁rock	-9.06855
mark	-9.06903
mor	-9.06938
smith	-9.07223
rod	-9.07343
adi	-9.07359
▁cant	-9.07473
grave	-9.076
▁bull	-9.07919
▁dy	-9.07946
ati	-9.07962
▁sur	-9.08032
ome	-9.08134
▁mir	-9.08198
fold	-9.08396
▁deb	-9.08568
▁stre	-9.08585
away	-9.08589
▁ag	-9.08641
iver	-9.08961
▁nar	-9.0928
arian	-9.09426
wig	-9.09504
hl	-9.09529
lier	-9.09829
ition	-9.0984
lat	-9.10222
▁cop	-9.10229
▁north	-9.10395
▁lac	-9.10674
ira	-9.10718
▁jer	-9.10922
ria	-9.10929
▁ker	-9.10953
▁white	-9.11004
ault	-9.11032
croft	-9.11137
▁kin	-9.11166
▁high	-9.11201
lander	-9.11263
▁thi	-9.11315
▁tam	-9.11353
ux	-9.11394
▁ran	-9.11611
ato	-9.11615
iff	-9.11682
bur	-9.11883
fu	-9.11938
▁bat	-9.11964
▁cla	-9.12391
wan	-9.12466
uf	-9.12614
▁hun	-9.12742
ord	-9.13006
ility	-9.13432
▁bag	-9.13461
cat	-9.13521
chu	-9.13697
ua	-9.1375
▁gir	-9.13797
kov	-9.13973
▁mut	-9.14144
olo	-9.14221
mbo	-9.14239
table	-9.14315
aries	-9.14339
ador	-9.144
cia	-9.144
tha	-9.14508
ency	-9.14625
▁spa	-9.14726
avi	-9.14733
agh	-9.14761
vey	-9.14802
▁back	-9.1487
▁brun	-9.15028
tel	-9.15205
mere	-9.15497
▁sim	-9.1561
▁tan	-9.15613
▁top	-9.157
▁wall	-9.15704
zel	-9.15766
▁sil	-9.15777
▁unf	-9.15781
hall	-9.15881
hal	-9.1591
eh	-9.15967
▁bran	-9.15971
▁rai	-9.16094
▁hill	-9.16146
own	-9.1623
fort	-9.16251
bin	-9.16287
▁dro	-9.16414
ify	-9.16444
▁mou	-9.16712
burgh	-9.16861
ifying	-9.17054
net	-9.17062
▁alc	-9.17117
▁wel	-9.17133
lam	-9.17198
▁free	-9.17255
▁hoo	-9.17283
pit	-9.17327
atory	-9.17569
▁wild	-9.17616
mouth	-9.17642
▁foot	-9.17826
▁mak	-9.17872
▁mark	-9.1798
▁sho	-9.18046
▁grim	-9.18173
loo	-9.18235
▁rod	-9.18343
▁bou	-9.18346
▁der	-9.18446
▁hon	-9.18512
▁din	-9.1867
▁dou	-9.18671
▁lou	-9.18783
itz	-9.18851
▁row	-9.18928
body	-9.18942
del	-9.18972
bach	-9.19028
▁fil	-9.19124
key	-9.19175
▁law	-9.19224
▁sam	-9.19303
▁kur	-9.1948
▁hart	-9.19501
▁bay	-9.19575
▁prop	-9.2
▁ske	-9.20004
▁bol	-9.20049
down	-9.20147
▁flo	-9.20207
top	-9.2022
▁sher	-9.20342
▁lam	-9.20343
ability	-9.20346
ago	-9.20458
▁call	-9.20675
nder	-9.21177
▁matt	-9.21259
▁chu	-9.21348
▁fire	-9.21421
▁cav	-9.21451
maid	-9.21453
▁not	-9.21508
tive	-9.21523
▁lind	-9.2153
▁cont	-9.21661
mal	-9.21747
dell	-9.21763
▁camp	-9.21767
▁cart	-9.21864
ality	-9.2189
▁petr	-9.21938
▁wer	-9.21947
▁tab	-9.22082
▁nan	-9.22097
mund	-9.22149
▁dela	-9.22198
lac	-9.22256
ovitch	-9.22257
▁carr	-9.22272
▁spo	-9.22294
bird	-9.22305
ue	-9.2241
ugh	-9.22457
cock	-9.22602
▁tol	-9.22683
wo	-9.22705
▁lat	-9.22776
▁air	-9.22929
wing	-9.23003
ever	-9.23067
▁ble	-9.23158
lov	-9.23196
▁kra	-9.23248
lum	-9.23376
rad	-9.23379
stock	-9.23449
▁jack	-9.23521
bus	-9.23646
ito	-9.23884
▁cli	-9.23937
▁shu	-9.24034
▁tin	-9.24078
quin	-9.24505
▁tow	-9.2452
lia	-9.24727
gon	-9.2483
▁bil	-9.24878
▁pick	-9.24896
▁py	-9.24906
▁hall	-9.25019
kel	-9.25055
▁snow	-9.25089
▁franc	-9.2511
▁rose	-9.25183
▁non	-9.25213
▁trans	-9.2528
▁tom	-9.25309
▁ferr	-9.25417
ound	-9.25558
▁love	-9.25718
▁az	-9.25738
▁band	-9.26016
▁fat	-9.26088
▁sid	-9.26116
aff	-9.26122
ization	-9.26245
hand	-9.2639
▁pop	-9.26447
aya	-9.26489
pur	-9.26713
woman	-9.26918
▁who	-9.26991
ali	-9.26998
▁conf	-9.27116
sburg	-9.27127
▁lap	-9.2717
▁run	-9.27289
▁bern	-9.2735
▁dom	-9.27423
▁sor	-9.2751
▁king	-9.2773
▁em	-9.27795
anne	-9.27891
itude	-9.27903
▁yu	-9.27926
uck	-9.28019
rid	-9.2814
▁hin	-9.28248
koff	-9.28457
▁cer	-9.28471
point	-9.2849
ope	-9.28628
bee	-9.28661
▁bart	-9.28801
▁ple	-9.28949
pot	-9.29015
pper	-9.29132
▁kam	-9.2917
▁phil	-9.29217
▁pomp	-9.29238
ides	-9.29265
bourne	-9.29288
igne	-9.29377
self	-9.29439
▁pul	-9.29573
lant	-9.29629
▁emb	-9.29759
▁ky	-9.29793
cot	-9.29814
wald	-9.29895
enburg	-9.29922
▁haw	-9.30104
▁poly	-9.30105
▁av	-9.30117
▁broad	-9.30291
▁pont	-9.30298
ough	-9.30422
anna	-9.30429
▁wan	-9.30605
▁lib	-9.30737
▁prim	-9.30888
▁cost	-9.3108
▁eu	-9.31089
eaux	-9.31185
▁mess	-9.31455
▁pel	-9.31673
▁flam	-9.31996
ika	-9.32064
agon	-9.32072
▁south	-9.32164
fall	-9.32176
▁ali	-9.32253
orn	-9.32428
▁cho	-9.3245
arn	-9.32685
cla	-9.32753
cca	-9.32778
▁christ	-9.33
▁dia	-9.33196
illo	-9.3329
kar	-9.33348
▁prec	-9.33357
▁blue	-9.33366
▁peri	-9.3348
ama	-9.33546
urg	-9.33565
▁rob	-9.3357
eux	-9.33711
▁flu	-9.33715
▁mol	-9.33726
▁fun	-9.34006
far	-9.34174
▁gall	-9.34174
▁clar	-9.34182
ept	-9.34255
ancy	-9.34256
▁bod	-9.34259
▁dem	-9.34297
q	-9.34308
▁wu	-9.34827
▁ci	-9.34829
▁wool	-9.34902
▁salt	-9.34959
beck	-9.35253
▁som	-9.35275
▁hat	-9.35374
▁thur	-9.35377
vre	-9.35435
▁acc	-9.35489
▁tir	-9.35844
▁wash	-9.35899
▁had	-9.35918
leg	-9.36029
▁rh	-9.36091
▁old	-9.361
▁sco	-9.36121
▁dev	-9.36184
roy	-9.36308
shi	-9.36316
bone	-9.36402
▁rat	-9.36429
▁aw	-9.36481
▁kir	-9.36507
ball	-9.36521
thorpe	-9.36633
iah	-9.36634
etti	-9.36724
▁lun	-9.36787
▁plu	-9.3685
▁vau	-9.36933
▁brad	-9.37033
▁div	-9.37058
zon	-9.37133
▁stock	-9.37149
ender	-9.37215
▁low	-9.37307
▁stor	-9.3741
hole	-9.37522
rel	-9.37577
▁school	-9.37607
▁off	-9.37621
▁gul	-9.37709
▁work	-9.37775
ois	-9.37781
eller	-9.38012
▁down	-9.38101
▁bill	-9.38182
▁light	-9.38206
▁swa	-9.38469
▁sou	-9.38471
anda	-9.385
▁sad	-9.38529
rant	-9.38556
▁imper	-9.38611
▁bir	-9.38661
gui	-9.38704
len	-9.38714
▁sag	-9.38986
▁fau	-9.39002
mu	-9.39013
▁turn	-9.39109
ild	-9.39144
tte	-9.39203
oud	-9.39258
nier	-9.39265
ava	-9.39291
feld	-9.39361
▁dow	-9.39369
▁flor	-9.3951
▁hil	-9.39646
▁barn	-9.39785
rell	-9.39885
▁bul	-9.39925
▁maz	-9.40124
▁hind	-9.40153
mus	-9.4024
ima	-9.4049
bal	-9.40514
▁liv	-9.40543
flower	-9.40548
ona	-9.40604
▁play	-9.40608
▁kh	-9.40802
▁river	-9.40878
▁rud	-9.40902
▁thra	-9.40907
▁ox	-9.40959
▁zu	-9.41196
pri	-9.41323
▁dav	-9.41363
box	-9.41569
igh	-9.41612
▁viv	-9.41624
▁clu	-9.41636
▁rag	-9.41662
▁fac	-9.41769
▁cran	-9.4183
ograph	-9.41938
bank	-9.41956
rance	-9.42002
▁shi	-9.42247
uth	-9.42361
▁unw	-9.42619
dam	-9.4262
▁heart	-9.42621
▁mau	-9.42653
▁pay	-9.42661
long	-9.42829
▁eli	-9.42863
▁conc	-9.43004
▁equ	-9.43019
gal	-9.43125
▁you	-9.43159
▁vit	-9.43174
hof	-9.43186
path	-9.43299
▁pet	-9.43302
▁holl	-9.43307
▁pil	-9.43323
▁roman	-9.43371
▁met	-9.43406
▁gur	-9.43459
atic	-9.43549
nam	-9.43579
▁cin	-9.4362
fin	-9.4367
born	-9.4375
▁cou	-9.43841
▁pic	-9.43886
▁merri	-9.43972
▁ever	-9.43975
▁marg	-9.44127
▁sir	-9.44156
▁lad	-9.44256
zer	-9.44352
hon	-9.44421
▁blu	-9.44471
▁pant	-9.44509
▁terr	-9.44516
mir	-9.4468
bourg	-9.44802
ange	-9.44956
etto	-9.45002
hart	-9.45047
uz	-9.45195
▁burn	-9.45275
▁rain	-9.45305
nik	-9.45328
▁nat	-9.45372
▁cord	-9.45536
▁ama	-9.4554
▁rub	-9.4556
craft	-9.45638
ark	-9.45686
tru	-9.45688
▁dog	-9.45721
osa	-9.45773
▁aur	-9.458
▁book	-9.45863
▁champ	-9.45953
▁gua	-9.45967
▁night	-9.45993
▁arch	-9.46036
mba	-9.46075
wise	-9.46173
▁fish	-9.46433
dah	-9.46459
rand	-9.46515
una	-9.46531
boat	-9.46532
▁cross	-9.46584
▁salv	-9.46624
load	-9.46636
▁stro	-9.46659
▁gle	-9.46811
lake	-9.46859
law	-9.46906
▁pill	-9.47019
▁mono	-9.47025
ral	-9.47118
▁rav	-9.47269
▁gau	-9.47297
tier	-9.47303
▁brand	-9.47306
▁chin	-9.47479
▁arn	-9.4761
oir	-9.47646
▁kenn	-9.47693
▁brown	-9.47711
tar	-9.47739
coat	-9.47753
▁lin	-9.48024
most	-9.48184
▁iron	-9.48192
ril	-9.48328
▁hab	-9.48395
▁bour	-9.48514
▁vander	-9.48649
▁sap	-9.48753
▁carn	-9.48916
▁roth	-9.48993
▁gou	-9.49119
▁rig	-9.49143
met	-9.49156
otte	-9.49449
▁emp	-9.49469
▁march	-9.49562
▁herm	-9.49775
cap	-9.49834
ech	-9.49849
staff	-9.49876
▁crow	-9.49948
lect	-9.49953
▁home	-9.49953
▁wol	-9.50084
▁horse	-9.50155
▁epi	-9.50156
▁sti	-9.50167
▁say	-9.50185
▁rich	-9.5023
▁chil	-9.50265
▁gray	-9.50341
▁pad	-9.50341
gram	-9.50426
▁jen	-9.50443
emon	-9.50494
▁silver	-9.50639
▁wolf	-9.50683
odi	-9.5074
▁carl	-9.50772
▁lev	-9.50902
▁lab	-9.51013
stow	-9.51044
ache	-9.51068
▁shin	-9.51234
uit	-9.51255
cio	-9.51389
arch	-9.51409
▁add	-9.51454
▁mack	-9.51464
▁hum	-9.51481
leton	-9.51562
▁gru	-9.51575
▁chau	-9.51678
▁step	-9.51812
rah	-9.51821
ule	-9.51891
nia	-9.51932
onne	-9.51935
ttle	-9.51937
▁til	-9.51945
folk	-9.51952
▁unde	-9.51959
hold	-9.52005
▁saw	-9.52136
▁shel	-9.52174
▁monte	-9.52178
euse	-9.52203
▁slav	-9.52261
▁shar	-9.52265
▁diff	-9.52291
angle	-9.52342
▁leg	-9.52429
eve	-9.52514
ple	-9.52544
▁glo	-9.52598
▁tun	-9.52621
▁peter	-9.52691
hem	-9.52706
▁mand	-9.5282
uli	-9.52832
hel	-9.52834
ben	-9.53065
▁thorn	-9.53143
▁gam	-9.53199
▁dru	-9.53235
▁whe	-9.53267
nut	-9.53287
▁cour	-9.53321
▁hop	-9.53349
▁lau	-9.5336
▁grey	-9.53365
▁plo	-9.53383
lick	-9.53429
▁lur	-9.53557
rich	-9.53621
pping	-9.53638
shop	-9.53788
▁mud	-9.53789
▁bast	-9.53843
phon	-9.53954
▁sci	-9.54059
▁spar	-9.54106
cloth	-9.5417
▁watch	-9.54213
▁fitz	-9.54305
enstein	-9.5436
▁guil	-9.5466
▁log	-9.54714
crib	-9.54822
▁hom	-9.5483
▁jam	-9.5489
cliffe	-9.54933
too	-9.54981
penny	-9.55043
▁pall	-9.55118
under	-9.55294
fra	-9.55344
▁palm	-9.55359
chy	-9.55369
fo	-9.55402
▁chan	-9.55466
▁tap	-9.55541
▁sec	-9.55562
▁fel	-9.55632
▁hou	-9.55662
▁blood	-9.55706
bound	-9.55717
illon	-9.55819
pre	-9.55911
▁wis	-9.56053
▁paul	-9.56057
▁batt	-9.56109
chard	-9.56131
▁pha	-9.56152
▁haz	-9.56156
alla	-9.56161
▁bald	-9.56203
▁vic	-9.5621
▁vin	-9.56265
aro	-9.56275
▁end	-9.56384
▁arr	-9.56399
tree	-9.56404
▁sweet	-9.56409
rate	-9.56416
▁bli	-9.56437
▁rev	-9.56474
▁short	-9.56496
▁spec	-9.56516
keeper	-9.56649
rov	-9.56787
▁four	-9.56883
aux	-9.5694
lit	-9.56981
jah	-9.56981
▁op	-9.57012
egg	-9.57162
▁roll	-9.57254
aga	-9.57256
char	-9.57295
zzi	-9.57329
▁see	-9.57524
▁garr	-9.57573
▁supp	-9.57578
▁spin	-9.57675
bon	-9.57899
▁merc	-9.57937
▁east	-9.58078
oul	-9.58102
▁wak	-9.58305
▁kel	-9.58377
▁dep	-9.584
with	-9.58461
hard	-9.58564
▁neg	-9.58747
▁aff	-9.58791
right	-9.58829
▁unb	-9.58831
▁card	-9.58871
▁rem	-9.58875
▁lem	-9.58938
▁dir	-9.58941
mother	-9.58981
▁beg	-9.59012
shed	-9.591
cht	-9.59116
▁sig	-9.5913
▁pit	-9.59171
▁fox	-9.59253
▁conn	-9.59264
▁pon	-9.59359
▁mam	-9.59376
▁spring	-9.59384
▁dup	-9.59533
▁mart	-9.5954
borne	-9.5962
▁magn	-9.59761
igny	-9.59797
shot	-9.59868
▁wor	-9.59956
borg	-9.59957
▁cher	-9.60069
▁pig	-9.60129
acre	-9.60359
▁sant	-9.60424
▁know	-9.60428
▁fell	-9.60436
▁im	-9.60512
fish	-9.60635
pu	-9.60837
▁just	-9.60849
▁kol	-9.60877
▁bis	-9.61007
▁cul	-9.61024
▁lamp	-9.61042
▁horn	-9.6116
▁kill	-9.61216
dore	-9.61335
▁poll	-9.6134
nard	-9.61457
▁chap	-9.61493
▁cut	-9.61494
▁brid	-9.61504
▁contra	-9.61523
enne	-9.61574
▁mich	-9.6162
▁boy	-9.61664
worthy	-9.61791
▁alm	-9.61984
▁moon	-9.62041
▁capit	-9.62133
book	-9.62284
▁rever	-9.62479
vie	-9.62542
awa	-9.62598
▁there	-9.62608
▁angel	-9.62743
▁ray	-9.62748
▁cass	-9.62775
▁pend	-9.62787
▁aga	-9.62814
▁brig	-9.629
hn	-9.62982
▁hell	-9.6302
▁tell	-9.6317
▁mend	-9.63385
▁kle	-9.63389
▁sau	-9.63464
main	-9.63477
unk	-9.63567
▁chant	-9.63582
▁mik	-9.63585
▁rap	-9.63639
▁kla	-9.63711
▁kirk	-9.63988
aria	-9.64
▁shak	-9.64104
▁mall	-9.64156
▁jon	-9.64201
cour	-9.64357
▁counter	-9.64377
oid	-9.64588
▁tou	-9.6462
▁rum	-9.64666
haven	-9.64818
▁boo	-9.6488
▁tr	-9.65181
iel	-9.6547
▁wald	-9.65528
▁mull	-9.65551
▁og	-9.65558
▁dick	-9.65576
▁pir	-9.65679
▁tot	-9.65884
▁some	-9.65907
wall	-9.65976
▁rest	-9.66011
will	-9.66037
grove	-9.66066
▁fli	-9.66074
ovna	-9.66077
onia	-9.66086
pole	-9.66175
▁kha	-9.66313
▁cel	-9.66457
▁sib	-9.66496
hir	-9.6652
▁lim	-9.66572
▁frank	-9.66618
cote	-9.66682
▁rom	-9.66711
▁door	-9.66773
▁mim	-9.66845
▁guer	-9.66875
▁pr	-9.66878
▁cali	-9.6688
lian	-9.66905
▁goo	-9.66916
trap	-9.66942
▁sca	-9.67036
ace	-9.67086
mount	-9.67163
▁past	-9.67173
iva	-9.6726
▁pand	-9.67392
ump	-9.67425
▁plum	-9.67626
▁jor	-9.67699
▁hul	-9.67719
ology	-9.67733
fre	-9.67767
phi	-9.67879
▁inn	-9.6788
▁mort	-9.68013
▁hawk	-9.68031
▁liber	-9.68144
hun	-9.68254
rington	-9.68312
▁tat	-9.68364
▁pier	-9.68395
▁beth	-9.68411
thwaite	-9.68566
▁bad	-9.68677
▁ala	-9.68898
esh	-9.68925
ades	-9.68959
▁jud	-9.69011
▁winter	-9.69079
tius	-9.6909
ario	-9.6916
omi	-9.69241
face	-9.6926
▁neu	-9.69366
▁sep	-9.69404
pha	-9.69426
▁hack	-9.69502
▁thu	-9.69522
trop	-9.6965
▁gab	-9.69675
▁bush	-9.69768
take	-9.69802
▁rot	-9.69981
epp	-9.70072
▁hav	-9.70084
lich	-9.70147
▁fed	-9.70216
▁cath	-9.70224
▁swan	-9.70299
▁undi	-9.70317
▁nag	-9.70335
aut	-9.70396
mber	-9.70465
bber	-9.70494
▁meli	-9.70594
▁vor	-9.70607
holm	-9.70636
run	-9.70636
pon	-9.70665
▁harri	-9.70858
▁eye	-9.70978
oux	-9.70999
▁where	-9.71047
▁winn	-9.71071
▁glad	-9.71179
▁pod	-9.71189
pec	-9.71209
for	-9.71253
▁trou	-9.71293
▁elm	-9.71298
▁mang	-9.71345
▁bass	-9.71625
pho	-9.71628
▁big	-9.71822
▁leon	-9.71851
▁plat	-9.71877
▁cod	-9.72015
▁sick	-9.72028
▁trev	-9.72041
▁moo	-9.72085
roll	-9.72092
▁raw	-9.72103
ody	-9.7211
▁sul	-9.7212
▁bak	-9.72129
▁ear	-9.72216
▁gan	-9.72287
▁doo	-9.72479
▁martin	-9.72493
▁stu	-9.72512
▁vest	-9.72518
▁galli	-9.7253
▁bron	-9.72597
▁tele	-9.72638
▁suff	-9.72758
▁sharp	-9.72883
▁rib	-9.72951
forth	-9.72972
▁bear	-9.72978
▁thro	-9.72978
olf	-9.73012
▁viol	-9.73125
▁lud	-9.73143
▁person	-9.73419
kind	-9.73441
▁main	-9.73468
string	-9.73479
▁proc	-9.73586
▁gy	-9.73637
▁vel	-9.73653
vert	-9.73681
word	-9.73713
boro	-9.73759
not	-9.73848
ienne	-9.7385
▁fou	-9.73937
▁what	-9.73974
illy	-9.74032
pel	-9.74066
enham	-9.74072
▁penn	-9.74102
▁sak	-9.7417
worm	-9.74202
phone	-9.74306
▁reb	-9.74361
▁lep	-9.74366
rik	-9.74467
▁dum	-9.74481
▁lamb	-9.74487
▁rak	-9.74641
unce	-9.74654
▁mani	-9.74703
illi	-9.74724
stadt	-9.74857
riot	-9.74916
otti	-9.74985
anger	-9.75141
onic	-9.75161
aka	-9.7522
liest	-9.7524
▁fam	-9.75251
une	-9.75261
dorf	-9.75353
hound	-9.75401
▁pac	-9.75421
▁aver	-9.75628
▁spl	-9.75643
bald	-9.75676
▁lock	-9.75727
▁donn	-9.75728
stro	-9.75736
▁popp	-9.75854
▁hear	-9.75897
anus	-9.761
▁uncon	-9.76187
▁hir	-9.762
▁vir	-9.76202
▁entr	-9.76295
▁serv	-9.76326
▁prov	-9.7635
▁ost	-9.76451
aj	-9.76463
illard	-9.7651
alia	-9.76543
▁schw	-9.76622
hope	-9.76642
▁ele	-9.76743
mead	-9.7681
hov	-9.76826
piece	-9.76832
▁moor	-9.76891
▁tour	-9.76914
▁duc	-9.76942
ulu	-9.77029
▁bark	-9.77078
▁kap	-9.77114
▁pag	-9.77123
nette	-9.7715
▁nic	-9.7717
wen	-9.77208
▁raven	-9.77215
ila	-9.7724
cut	-9.7727
▁earth	-9.77313
▁forg	-9.77395
▁bett	-9.77494
stand	-9.77594
▁ep	-9.77668
▁shad	-9.77679
▁nick	-9.77689
▁cub	-9.77746
bad	-9.77784
▁witt	-9.77791
idge	-9.77933
▁unpr	-9.78112
▁gav	-9.78141
▁dead	-9.78244
▁butter	-9.78416
▁pack	-9.78476
▁syn	-9.78476
vet	-9.78491
▁mod	-9.78609
▁chor	-9.78643
▁rick	-9.78645
▁show	-9.78654
▁ord	-9.78665
▁pun	-9.78739
▁nav	-9.78891
▁gon	-9.789
▁park	-9.78919
form	-9.78923
▁wad	-9.79007
rigg	-9.79042
▁gat	-9.79097
▁oak	-9.79115
▁won	-9.7916
▁quint	-9.79187
▁pou	-9.79196
▁gaz	-9.79205
quo	-9.79216
hild	-9.79222
▁beat	-9.79245
▁sati	-9.79272
▁boul	-9.79337
▁medi	-9.79343
rough	-9.79363
▁clan	-9.79403
▁devo	-9.79652
▁plain	-9.79719
gnan	-9.79801
chon	-9.79823
▁heli	-9.79836
▁pec	-9.80019
▁hick	-9.80037
ought	-9.80159
▁fort	-9.80253
john	-9.80256
vor	-9.80267
▁wit	-9.80406
▁scal	-9.80431
▁horr	-9.80453
▁rid	-9.80492
▁theo	-9.80576
oke	-9.80603
▁did	-9.80655
nus	-9.80714
▁wh	-9.80732
litz	-9.80799
ual	-9.80831
▁vari	-9.80884
▁but	-9.80917
▁pow	-9.80982
▁koo	-9.81059
zza	-9.81065
▁slu	-9.81124
jou	-9.81165
▁mem	-9.81247
▁span	-9.81264
▁fill	-9.81287
kow	-9.81316
▁part	-9.81346
▁pent	-9.81357
▁nau	-9.81363
hoe	-9.81396
▁pep	-9.81443
isse	-9.81447
bear	-9.81464
marsh	-9.81493
tsch	-9.81514
▁and	-9.81526
▁wen	-9.81603
wi	-9.81638
witz	-9.81639
ware	-9.81654
cum	-9.81664
▁life	-9.81772
▁tran	-9.81938
ush	-9.82007
▁bau	-9.82053
▁gad	-9.82094
▁villa	-9.82096
▁kon	-9.82099
▁tea	-9.82104
▁apple	-9.82154
▁till	-9.82213
▁mist	-9.82228
otto	-9.82249
▁kitt	-9.82282
▁tant	-9.823
▁ald	-9.82334
owski	-9.82334
▁prof	-9.82353
▁mala	-9.82408
▁gang	-9.82475
▁fru	-9.8248
▁sob	-9.82537
▁neb	-9.82542
zar	-9.82548
bag	-9.82588
▁dil	-9.82731
▁rhe	-9.82735
▁gol	-9.82743
▁woo	-9.82802
brow	-9.82816
mel	-9.82829
gno	-9.82865
rim	-9.83068
gun	-9.83099
▁round	-9.83132
▁act	-9.83341
▁here	-9.83345
pence	-9.83376
gard	-9.8351
▁fear	-9.83649
▁ring	-9.83664
guin	-9.83679
▁glu	-9.83696
▁touch	-9.83768
lung	-9.84005
power	-9.84143
abel	-9.84198
dean	-9.84304
▁kind	-9.8436
▁form	-9.84366
▁flag	-9.84372
▁pala	-9.84374
arra	-9.84375
▁simp	-9.84382
dyke	-9.84412
lik	-9.84428
deck	-9.84615
▁tod	-9.8462
how	-9.84662
▁max	-9.84676
▁succ	-9.84898
▁tyr	-9.84912
▁jun	-9.85198
▁vig	-9.85227
▁ax	-9.85291
about	-9.85376
▁host	-9.85409
▁weather	-9.85522
▁dark	-9.85559
▁wonder	-9.85582
▁draw	-9.85672
▁tall	-9.85763
▁crack	-9.85763
▁dry	-9.85775
ando	-9.85792
▁bond	-9.85817
aeus	-9.8585
stick	-9.85935
▁vall	-9.8605
▁mount	-9.86059
jan	-9.8609
fellow	-9.86144
thorne	-9.86144
oise	-9.86147
▁ale	-9.86186
▁zar	-9.86308
▁wat	-9.86396
▁tang	-9.86457
▁vid	-9.86528
minster	-9.86566
▁cann	-9.86603
▁lead	-9.86703
bush	-9.86766
▁daw	-9.86901
▁alf	-9.86971
▁clam	-9.86998
▁sten	-9.87003
ult	-9.87081
▁church	-9.87081
bow	-9.87108
case	-9.87159
▁gay	-9.87164
cian	-9.87182
inda	-9.87295
▁riv	-9.87316
▁wir	-9.8736
▁stat	-9.87365
pond	-9.87367
▁rend	-9.87458
▁dub	-9.87467
jal	-9.87483
zie	-9.87511
oda	-9.87521
▁human	-9.87627
wich	-9.87807
▁semi	-9.8786
igo	-9.87995
▁sever	-9.88057
evitch	-9.88324
hoo	-9.88336
▁bry	-9.8838
inski	-9.88393
▁serg	-9.88494
▁coo	-9.88549
▁hep	-9.88577
▁rein	-9.8858
ibility	-9.88583
kwa	-9.88634
▁command	-9.8867
▁kell	-9.88684
anza	-9.8869
▁arg	-9.8872
▁plac	-9.88729
grad	-9.88755
▁iv	-9.88904
wright	-9.89093
good	-9.891
aille	-9.89128
▁wha	-9.89234
▁colon	-9.8935
mine	-9.89385
cumber	-9.89435
moor	-9.8945
▁harp	-9.89462
wind	-9.89509
▁loc	-9.89581
▁bog	-9.89758
bie	-9.89849
▁tak	-9.89943
▁mea	-9.89955
father	-9.8998
▁sign	-9.90006
▁arc	-9.90011
▁blow	-9.90116
vant	-9.90128
▁put	-9.90142
▁beck	-9.90148
place	-9.90162
▁child	-9.90271
▁marc	-9.90284
▁stud	-9.90334
▁sail	-9.90335
▁cover	-9.90362
lish	-9.90407
▁pip	-9.9049
▁guard	-9.90606
shell	-9.90642
▁fir	-9.9068
buck	-9.90687
▁joy	-9.90688
▁bomb	-9.90697
tep	-9.90731
▁jur	-9.90756
chan	-9.90767
▁jim	-9.90777
▁andre	-9.90784
ledge	-9.90787
count	-9.90849
▁test	-9.90854
▁hob	-9.90892
▁tul	-9.90949
▁cook	-9.91057
▁vil	-9.91247
▁hey	-9.9131
drop	-9.91336
▁stur	-9.91372
▁chill	-9.9147
▁moh	-9.91479
▁rust	-9.91508
▁rip	-9.91512
agua	-9.91519
▁pell	-9.9165
xton	-9.91683
nois	-9.91752
▁vent	-9.91845
▁philosoph	-9.91863
▁lust	-9.91886
▁brick	-9.91902
▁strang	-9.91984
▁cit	-9.92021
▁quick	-9.92062
lington	-9.92063
▁lay	-9.92165
anga	-9.92205
▁ross	-9.92211
▁fol	-9.92242
▁barbar	-9.92251
▁hair	-9.92405
▁kre	-9.92474
▁helm	-9.92533
▁farr	-9.92539
cliff	-9.92572
kirk	-9.92643
▁boot	-9.92696
▁heav	-9.92714
▁desp	-9.92954
inde	-9.92985
▁summer	-9.93021
▁clean	-9.93062
mill	-9.93099
▁best	-9.93135
▁ec	-9.93195
▁ethel	-9.93353
gni	-9.93422
▁grac	-9.93433
▁look	-9.93486
▁herr	-9.93543
▁mean	-9.93588
▁ska	-9.93671
▁kri	-9.93686
▁chick	-9.93729
ande	-9.93825
▁stein	-9.93836
▁tick	-9.93874
▁nam	-9.93902
▁carp	-9.93989
▁piet	-9.93997
▁rush	-9.94188
▁nab	-9.94231
▁ruff	-9.94368
elia	-9.94371
▁jac	-9.94375
▁maur	-9.94407
▁juli	-9.94412
cast	-9.94453
bill	-9.94501
▁lit	-9.94516
▁sacr	-9.9459
▁cay	-9.94722
▁cycl	-9.9477
▁ask	-9.94787
plane	-9.94819
castle	-9.94836
▁half	-9.949
▁gob	-9.94923
fore	-9.94941
▁jin	-9.94991
strom	-9.95025
child	-9.95203
▁gill	-9.95227
▁jacob	-9.95242
▁thunder	-9.95253
▁rath	-9.95269
euil	-9.95281
mour	-9.95281
amus	-9.95321
▁cull	-9.95449
▁buff	-9.9551
▁herb	-9.95533
▁dream	-9.95553
▁guid	-9.95696
▁trip	-9.95697
▁prot	-9.95703
org	-9.96064
▁quin	-9.96148
jar	-9.96255
▁bid	-9.96333
▁little	-9.96369
▁brook	-9.96371
▁charm	-9.96452
▁cau	-9.96531
num	-9.96536
play	-9.96695
▁gib	-9.96774
▁stick	-9.9684
▁castle	-9.96895
thus	-9.96974
fast	-9.9701
▁cara	-9.97087
▁dim	-9.97237
bla	-9.97329
▁tatt	-9.97594
▁calv	-9.97631
▁shal	-9.9764
▁tipp	-9.977
▁zan	-9.97758
▁spi	-9.97775
▁minn	-9.97779
race	-9.97884
bolt	-9.97885
▁help	-9.98019
▁zin	-9.98032
▁wah	-9.98061
weed	-9.98119
mmel	-9.98134
▁dai	-9.98221
▁pru	-9.98283
haus	-9.98316
▁reli	-9.98337
▁liz	-9.98365
▁ami	-9.9839
vale	-9.9844
ripp	-9.98563
▁dew	-9.98602
pool	-9.98631
▁gud	-9.98703
▁gunn	-9.98727
rose	-9.98763
▁middle	-9.98766
▁christian	-9.98805
▁circum	-9.98809
▁beh	-9.98832
▁space	-9.98847
ais	-9.98903
cutt	-9.98942
▁toll	-9.98969
ega	-9.98977
▁sleep	-9.99082
▁fet	-9.99126
▁emm	-9.99202
ggle	-9.99251
▁gott	-9.99327
uel	-9.99353
▁curr	-9.99407
▁kun	-9.99413
▁poo	-9.99419
▁hot	-9.99484
▁seg	-9.99584
ibus	-9.99585
▁queen	-9.99615
inous	-9.99652
▁mast	-9.9969
pipe	-9.99694
▁stir	-9.99703
▁stag	-9.99767
▁bee	-9.99804
▁lag	-9.99834
▁babb	-10.0011
bat	-10.0013
▁spit	-10.0013
▁schl	-10.0015
▁puff	-10.0018
▁foul	-10.0022
other	-10.0027
▁stand	-10.0032
loch	-10.0032
▁vend	-10.0032
▁great	-10.0036
▁poet	-10.0036
▁tid	-10.0039
▁amp	-10.0043
▁dash	-10.0043
rock	-10.0046
▁sex	-10.005
▁mell	-10.0053
ulf	-10.0058
▁inst	-10.0062
▁bright	-10.0062
▁maj	-10.0071
▁disp	-10.0076
rush	-10.0102
▁mira	-10.0115
▁coup	-10.0117
▁dri	-10.0125
▁plan	-10.0134
▁prob	-10.0141
▁kings	-10.0145
▁wester	-10.015
▁devi	-10.0153
hew	-10.0169
▁tho	-10.018
▁whin	-10.0184
▁dig	-10.0188
▁wagg	-10.0199
▁dio	-10.0207
▁rut	-10.0215
▁russ	-10.0224
▁bram	-10.0225
world	-10.0226
▁sheep	-10.0228
glio	-10.0235
▁break	-10.024
▁ort	-10.0245
▁victor	-10.0251
hide	-10.0264
▁quar	-10.0268
▁jess	-10.0275
holder	-10.0282
▁bin	-10.0283
enheim	-10.0288
cross	-10.0289
▁temp	-10.0297
▁stri	-10.0299
bah	-10.03
girl	-10.0302
position	-10.0305
cord	-10.0309
▁doll	-10.0309
▁mig	-10.0309
▁mega	-10.031
▁tac	-10.032
cular	-10.0325
hausen	-10.0331
▁gut	-10.0339
▁sut	-10.034
▁hang	-10.0343
▁quadr	-10.0346
▁carol	-10.0348
▁worr	-10.0353
▁stern	-10.0354
tim	-10.0355
▁with	-10.0366
▁stol	-10.0368
fleet	-10.0371
▁mach	-10.0375
▁cler	-10.0376
▁saf	-10.0376
▁nicol	-10.0395
▁gaw	-10.0411
eta	-10.0411
ried	-10.0411
bread	-10.0416
▁bet	-10.0424
▁laud	-10.043
▁any	-10.0439
▁bail	-10.0441
▁kne	-10.0458
▁opp	-10.0465
ouche	-10.0469
▁lob	-10.0474
▁gard	-10.0474
▁shap	-10.0474
▁klo	-10.0481
jack	-10.0481
rop	-10.0489
meter	-10.0492
▁pitt	-10.0492
▁moll	-10.0496
▁farn	-10.0505
aldo	-10.0505
▁blen	-10.0516
▁adel	-10.0523
▁gram	-10.0526
nitz	-10.0539
▁whitt	-10.0546
▁tau	-10.0555
▁fall	-10.0563
▁tapp	-10.0568
▁tip	-10.0573
opo	-10.0573
▁sanct	-10.0576
▁caus	-10.058
lau	-10.0581
oun	-10.0581
▁pry	-10.0588
▁kee	-10.059
▁lieb	-10.0595
▁chrys	-10.0601
shoot	-10.0603
▁thank	-10.0604
▁prince	-10.0608
▁hast	-10.061
▁squir	-10.0612
▁whi	-10.0615
▁lut	-10.0616
▁tann	-10.0626
▁pour	-10.0628
ular	-10.0629
▁tink	-10.0629
▁front	-10.0633
hoff	-10.0636
tuck	-10.0636
bold	-10.064
▁rabb	-10.0642
▁wag	-10.0644
gill	-10.065
wife	-10.065
▁govern	-10.0651
▁muk	-10.0672
▁kr	-10.0673
▁hunt	-10.0679
▁anton	-10.068
▁corb	-10.0684
friend	-10.0689
uta	-10.069
▁milit	-10.0699
wee	-10.0705
▁chipp	-10.0707
▁feather	-10.0708
▁vill	-10.072
▁lipp	-10.073
▁vul	-10.0737
aqua	-10.0738
▁cheer	-10.074
▁read	-10.0741
▁dear	-10.0747
▁found	-10.0748
weight	-10.0752
mmed	-10.0761
▁alleg	-10.0765
▁ingle	-10.0766
▁grad	-10.077
▁hipp	-10.0773
▁cassi	-10.0776
▁mock	-10.0779
▁haut	-10.0781
▁alv	-10.0784
▁gentle	-10.0788
pee	-10.0788
▁bath	-10.0798
▁sem	-10.0808
▁roy	-10.0818
lang	-10.0833
▁storm	-10.0834
▁wheel	-10.0837
▁rar	-10.0839
▁chart	-10.085
▁flan	-10.0851
▁spur	-10.0855
▁need	-10.0857
▁wid	-10.0864
muir	-10.0865
▁heath	-10.0865
▁gorg	-10.0866
▁yar	-10.0867
▁hag	-10.0869
corn	-10.0881
monger	-10.0887
▁fad	-10.0887
▁mai	-10.0907
▁fly	-10.0914
leaf	-10.0919
thea	-10.0928
▁still	-10.0931
garth	-10.0931
pose	-10.0934
▁fab	-10.0935
▁myr	-10.094
hearted	-10.0941
▁grav	-10.0942
▁fast	-10.0956
jee	-10.0957
monde	-10.0961
fire	-10.0964
▁elf	-10.0965
▁laf	-10.0973
▁tourn	-10.0973
▁curt	-10.0973
rath	-10.0977
▁dand	-10.098
come	-10.0982
▁flat	-10.0983
▁bung	-10.0984
ulla	-10.0992
wain	-10.0992
▁cen	-10.0997
▁hydro	-10.0998
▁seren	-10.0999
▁stiff	-10.1
▁fresh	-10.1
pple	-10.1
▁orm	-10.1009
throp	-10.1009
bul	-10.101
took	-10.1011
▁prat	-10.102
▁muck	-10.103
▁drum	-10.1039
▁bland	-10.104
beau	-10.1053
▁amphi	-10.1059
▁watt	-10.106
wort	-10.1062
▁petti	-10.1066
mint	-10.1074
▁tob	-10.1076
▁honey	-10.1078
▁nun	-10.1081
cup	-10.1084
▁bind	-10.1093
▁ramp	-10.1093
▁trick	-10.1093
chow	-10.1094
▁spir	-10.1095
▁soo	-10.1095
▁pink	-10.1103
▁natur	-10.1117
▁mary	-10.1117
▁bam	-10.1121
▁oct	-10.1124
▁capt	-10.1129
bble	-10.1133
gall	-10.1134
▁cox	-10.1138
nga	-10.1145
▁count	-10.1148
▁deep	-10.115
rig	-10.1153
▁giv	-10.1153
▁clear	-10.1154
▁amen	-10.1155
▁loch	-10.1158
atta	-10.1158
▁circ	-10.1167
aca	-10.117
▁chat	-10.1175
▁dang	-10.1185
▁thir	-10.1191
▁putt	-10.1196
▁jell	-10.1197
▁cash	-10.1199
▁milk	-10.1201
▁berth	-10.121
lieu	-10.1212
▁lili	-10.1223
▁duck	-10.1224
kill	-10.1227
ague	-10.1229
▁rox	-10.1229
▁vivi	-10.1231
action	-10.1248
stream	-10.1254
▁litt	-10.1255
▁spark	-10.1259
▁pyr	-10.126
bug	-10.126
▁him	-10.1265
▁loll	-10.1273
▁baz	-10.1275
▁mult	-10.1282
andi	-10.1285
▁hann	-10.1287
pore	-10.1288
▁fay	-10.1291
▁gibb	-10.1304
▁ext	-10.1314
▁bob	-10.1317
guard	-10.1324
bha	-10.1339
issa	-10.1353
▁stru	-10.1358
▁nest	-10.1358
▁jed	-10.136
isson	-10.1361
▁speed	-10.1367
▁ign	-10.1368
▁walk	-10.137
▁hark	-10.1373
▁clay	-10.1382
▁wait	-10.1386
▁inform	-10.1389
hung	-10.1395
▁nim	-10.1395
▁hem	-10.1397
▁writ	-10.1403
▁sow	-10.1414
▁press	-10.1415
ook	-10.1418
mash	-10.1418
▁patron	-10.1425
▁thick	-10.1426
▁auto	-10.1426
▁brut	-10.1426
▁pom	-10.1437
▁quo	-10.1437
▁lady	-10.144
ovich	-10.1442
hardt	-10.1442
▁eas	-10.1445
▁check	-10.1447
asco	-10.1449
▁enc	-10.1451
thought	-10.1463
avo	-10.1465
▁road	-10.1469
▁foll	-10.1471
▁warr	-10.1474
▁poss	-10.1482
▁hog	-10.1493
▁gour	-10.15
▁mamm	-10.1503
▁pert	-10.1505
ugg	-10.151
ghan	-10.1515
esque	-10.153
▁trust	-10.1532
▁beech	-10.1532
▁camb	-10.1533
▁train	-10.1533
hat	-10.1545
laine	-10.1546
▁wast	-10.155
▁wre	-10.1554
▁strath	-10.1555
▁dhr	-10.1556
▁flav	-10.1557
▁mav	-10.1562
▁neck	-10.1564
▁gren	-10.1568
▁gain	-10.1589
▁fool	-10.159
▁kro	-10.1591
pol	-10.1607
▁day	-10.1618
▁gaud	-10.162
▁bird	-10.1637
▁hammer	-10.1648
▁bai	-10.1654
▁cum	-10.1662
▁nap	-10.1675
▁grun	-10.1675
fect	-10.168
argent	-10.168
▁harm	-10.1681
▁vene	-10.1681
▁jap	-10.1687
▁trem	-10.1695
▁pett	-10.17
▁brav	-10.1703
▁cano	-10.1709
▁honor	-10.171
▁rol	-10.1711
hara	-10.1713
▁plant	-10.1714
▁dul	-10.1716
▁arab	-10.172
▁maw	-10.172
▁mask	-10.1721
▁abd	-10.1727
hay	-10.1747
▁bann	-10.1755
▁mow	-10.1755
▁charle	-10.1762
dew	-10.1764
▁simon	-10.1772
orth	-10.1777
baum	-10.1778
headed	-10.1781
polis	-10.1785
▁real	-10.1787
thal	-10.1788
▁eph	-10.1792
▁alexandr	-10.1793
▁habit	-10.1794
▁georgi	-10.1794
▁evangel	-10.1795
▁continu	-10.1795
▁yellow	-10.1797
▁cool	-10.18
▁chanc	-10.1801
▁knock	-10.1806
pat	-10.1807
pread	-10.1807
▁bold	-10.1812
▁slat	-10.1813
brand	-10.1815
▁plen	-10.1815
▁blind	-10.1822
▁pleas	-10.1823
▁nil	-10.1825
▁master	-10.1828
▁fix	-10.1836
▁occ	-10.1841
▁kit	-10.1844
▁smok	-10.1845
▁visit	-10.1847
▁aust	-10.1848
▁bigg	-10.1851
ould	-10.1852
gne	-10.1854
▁anim	-10.1855
▁burr	-10.1856
▁kaz	-10.1858
▁elect	-10.1858
night	-10.1862
look	-10.1868
▁soph	-10.188
▁amor	-10.1881
▁fif	-10.1903
▁talk	-10.1906
▁dust	-10.1906
▁meh	-10.1907
tiful	-10.1921
▁indic	-10.1927
▁blank	-10.1929
▁hyper	-10.1936
▁tum	-10.1943
▁gener	-10.1943
▁hippo	-10.1956
kull	-10.1959
augh	-10.1966
▁verm	-10.1969
▁turk	-10.1972
▁organ	-10.1979
▁grind	-10.1985
▁brac	-10.1987
▁devil	-10.1987
▁meta	-10.1999
▁tel	-10.2006
market	-10.2008
aught	-10.2017
zzar	-10.2026
hawk	-10.203
iston	-10.2041
▁color	-10.2042
idor	-10.2058
▁alder	-10.2064
▁nur	-10.2066
▁fren	-10.207
holme	-10.2076
▁fact	-10.2077
▁earl	-10.2089
▁marr	-10.2089
prise	-10.2091
▁cert	-10.2099
▁nerv	-10.2103
zia	-10.2103
▁kru	-10.2105
▁smil	-10.2105
▁hatch	-10.2108
▁pau	-10.2113
heart	-10.2115
▁kab	-10.2116
▁tomb	-10.2118
▁lid	-10.2121
▁boat	-10.2125
▁butt	-10.2131
▁bank	-10.2141
immer	-10.2143
ema	-10.2145
▁calli	-10.2157
▁find	-10.2161
▁commun	-10.2178
▁rang	-10.2192
▁grant	-10.2194
▁secret	-10.2197
▁oro	-10.2197
▁aristo	-10.2201
▁tut	-10.2201
▁ranch	-10.2208
acco	-10.2214
cial	-10.2216
▁gin	-10.2224
pont	-10.2227
▁author	-10.2229
▁lup	-10.2233
▁samp	-10.2237
▁agr	-10.2241
▁gwen	-10.2241
▁think	-10.2241
▁import	-10.2242
▁vand	-10.2243
▁roche	-10.2243
▁ober	-10.2244
ometer	-10.2246
▁cloud	-10.2256
▁dud	-10.2257
▁allo	-10.2258
▁scot	-10.2262
▁rubb	-10.2264
▁harmon	-10.2274
▁petro	-10.2277
▁fond	-10.2278
ignac	-10.2279
▁chaff	-10.2281
▁infer	-10.2283
▁rough	-10.2285
grim	-10.2287
ova	-10.2287
▁rosen	-10.2292
▁philipp	-10.2303
phar	-10.2313
▁henri	-10.2315
▁ny	-10.2317
▁forest	-10.2318
cide	-10.2321
▁litera	-10.2321
heimer	-10.2325
proof	-10.2332
peak	-10.2338
▁coqu	-10.2345
rival	-10.2352
▁nord	-10.2357
▁moral	-10.236
▁tint	-10.236
▁tet	-10.2362
▁labor	-10.2364
▁soft	-10.2365
▁zer	-10.2366
▁wend	-10.2375
▁mum	-10.2381
▁gig	-10.239
wett	-10.239
▁caw	-10.239
▁sonn	-10.2397
▁cand	-10.2406
▁hild	-10.2408
icus	-10.241
▁fy	-10.241
▁trav	-10.2413
▁gand	-10.2415
hil	-10.2428
nath	-10.2429
▁thre	-10.2433
▁popul	-10.2436
▁kho	-10.2444
bor	-10.2446
love	-10.2448
ddington	-10.2454
▁leav	-10.2454
▁rab	-10.2462
▁ivan	-10.2468
bec	-10.2471
▁bash	-10.2471
▁even	-10.248
▁clair	-10.2481
▁audi	-10.2487
tag	-10.2489
▁tub	-10.2489
▁cun	-10.2507
▁civil	-10.2513
▁bant	-10.2527
▁mori	-10.2538
▁yak	-10.2547
▁gilli	-10.2551
▁archi	-10.2554
▁quir	-10.2557
▁missi	-10.2568
▁henn	-10.2585
▁trac	-10.2588
▁hold	-10.2609
▁zw	-10.2612
enza	-10.2615
▁divin	-10.2616
▁emer	-10.2621
▁bobb	-10.2623
▁miser	-10.2635
▁dug	-10.2636
▁ruth	-10.2644
▁gross	-10.2645
▁thou	-10.2648
vard	-10.2667
▁scho	-10.267
oom	-10.2674
▁battle	-10.2677
▁protect	-10.2683
▁brain	-10.2683
▁material	-10.2683
▁schm	-10.2689
vocat	-10.269
▁offici	-10.2696
oft	-10.2696
mini	-10.2708
rez	-10.2711
▁coch	-10.2712
▁crook	-10.2713
▁glan	-10.2719
▁madd	-10.2723
▁civ	-10.2726
▁brom	-10.2727
▁tag	-10.2728
▁block	-10.2741
▁observ	-10.2743
▁after	-10.2745
▁wish	-10.2745
cq	-10.2745
▁euph	-10.2751
▁jew	-10.2757
▁brock	-10.2762
neck	-10.2773
▁pear	-10.2777
nov	-10.2781
▁catch	-10.2789
▁lack	-10.2792
▁jeff	-10.2796
osity	-10.2799
▁lak	-10.2802
▁pepper	-10.2802
▁silv	-10.2804
fleur	-10.2804
▁chic	-10.2808
▁gene	-10.282
▁seven	-10.2826
▁bang	-10.2827
▁signal	-10.2829
hra	-10.2832
▁rah	-10.2833
▁zor	-10.2838
▁blake	-10.2843
▁copper	-10.2843
▁dod	-10.2847
vu	-10.2851
▁budd	-10.2852
▁mora	-10.2854
▁cutt	-10.2857
▁hoch	-10.2866
▁shill	-10.287
▁club	-10.2875
▁mana	-10.2876
▁gow	-10.2876
gha	-10.2889
▁lord	-10.2908
▁pott	-10.2913
meyer	-10.2913
hampton	-10.2915
▁brim	-10.2921
uve	-10.293
▁jean	-10.2951
▁rand	-10.2952
drum	-10.2962
beard	-10.2965
orum	-10.2968
▁wither	-10.2972
▁cron	-10.2974
▁soul	-10.2975
▁match	-10.2977
hom	-10.2978
▁tott	-10.2979
▁toil	-10.2981
▁inver	-10.2991
▁hazel	-10.3002
type	-10.3002
▁your	-10.3003
vick	-10.3004
griff	-10.301
lice	-10.3011
▁thom	-10.3023
cript	-10.3023
▁flow	-10.3024
▁pray	-10.3025
▁mind	-10.3025
chem	-10.3029
▁vern	-10.303
▁fruit	-10.3034
▁junk	-10.3034
▁poul	-10.304
▁tai	-10.3044
▁priv	-10.3046
▁tent	-10.3047
oso	-10.3051
▁sequ	-10.3055
▁odd	-10.3056
avon	-10.3058
aise	-10.306
uh	-10.3074
▁tarr	-10.3078
▁want	-10.3079
▁coul	-10.3079
but	-10.31
▁kara	-10.3102
▁spic	-10.3103
▁nod	-10.3109
▁cogn	-10.3111
▁class	-10.3121
▁khan	-10.3125
▁dob	-10.3129
▁cham	-10.3138
▁bump	-10.3139
witch	-10.314
mov	-10.3143
▁schu	-10.3146
mah	-10.3147
▁summ	-10.3147
▁roch	-10.315
▁fern	-10.3151
▁farm	-10.3154
▁public	-10.3159
▁crystal	-10.3159
▁bem	-10.3162
▁columb	-10.3162
▁haf	-10.3164
▁tank	-10.3165
▁admir	-10.3166
▁kad	-10.3168
▁glass	-10.3168
▁york	-10.3177
▁impress	-10.3177
▁dict	-10.3181
▁two	-10.3184
nock	-10.3184
▁hurr	-10.3185
▁right	-10.3186
bois	-10.3187
▁gum	-10.3192
▁bloom	-10.3196
▁duff	-10.3196
wold	-10.3197
▁general	-10.3201
▁eve	-10.3207
▁aven	-10.3207
▁mail	-10.3213
▁small	-10.3215
▁denn	-10.322
▁laugh	-10.322
▁nigg	-10.323
paper	-10.3246
▁birk	-10.325
▁death	-10.3254
▁kath	-10.3259
uca	-10.3259
fir	-10.3261
▁chol	-10.3268
▁bally	-10.3268
vik	-10.3268
▁edge	-10.3269
▁parad	-10.3276
▁orb	-10.3276
street	-10.3284
▁gent	-10.3287
▁rook	-10.3289
▁blan	-10.329
▁tear	-10.3291
▁anat	-10.3292
▁tah	-10.3295
▁inch	-10.3304
▁kipp	-10.3307
▁feel	-10.3307
▁parl	-10.3316
meister	-10.3317
▁sang	-10.332
▁paw	-10.3322
▁chir	-10.3326
▁shun	-10.3327
▁chatter	-10.333
▁micro	-10.3331
▁frost	-10.3332
▁lub	-10.3336
human	-10.3345
▁blanch	-10.3354
tory	-10.3354
▁git	-10.3359
olle	-10.3359
asso	-10.3365
▁tib	-10.3373
▁fig	-10.3377
▁why	-10.338
anov	-10.3381
▁ruf	-10.3386
▁bud	-10.339
▁german	-10.3391
▁phe	-10.3392
▁bois	-10.3392
orial	-10.3395
▁bray	-10.3401
▁dock	-10.3409
▁fran	-10.3412
▁sym	-10.3413
▁ghi	-10.3415
clair	-10.3418
▁hohen	-10.3425
▁extr	-10.3427
▁halli	-10.3429
font	-10.3431
▁bidd	-10.3431
zim	-10.3437
▁frag	-10.3438
itur	-10.3439
ohn	-10.344
▁digg	-10.344
leston	-10.3442
▁carb	-10.3445
brush	-10.3446
▁mab	-10.3447
caster	-10.3449
istan	-10.3449
▁hist	-10.3456
▁earn	-10.3459
▁cog	-10.346
trude	-10.3466
▁alp	-10.3468
hook	-10.3476
▁legg	-10.3477
pf	-10.3481
▁full	-10.3484
▁dunn	-10.3487
ilius	-10.3495
▁soc	-10.3504
▁ground	-10.3509
▁tuck	-10.351
▁every	-10.3513
blin	-10.3515
▁shoe	-10.3516
▁hank	-10.3519
▁tama	-10.3519
▁pli	-10.3522
▁parr	-10.3522
▁lig	-10.3523
robe	-10.3528
ological	-10.3533
▁kali	-10.3546
▁hew	-10.3555
▁pull	-10.3557
▁rebu	-10.3561
frey	-10.3566
▁adju	-10.3569
▁taw	-10.358
▁bust	-10.3583
▁aim	-10.3584
▁start	-10.3587
▁wur	-10.3591
▁stil	-10.3593
▁andro	-10.3595
▁chum	-10.3595
▁carri	-10.3605
▁meet	-10.3607
▁herd	-10.3615
▁both	-10.362
▁sew	-10.3635
▁fak	-10.3641
▁manu	-10.3642
▁character	-10.3645
ready	-10.3651
▁conv	-10.3652
▁marcel	-10.3655
stad	-10.3655
▁mash	-10.3656
▁wrong	-10.3659
▁doubt	-10.3661
▁darn	-10.3661
nook	-10.3661
▁chem	-10.3661
execut	-10.3662
▁hurl	-10.3662
▁vulgar	-10.3663
▁should	-10.3664
▁happ	-10.3665
▁strong	-10.3667
▁alo	-10.367
▁young	-10.3675
▁myst	-10.3677
▁perfect	-10.3681
▁bare	-10.3681
wash	-10.3681
▁die	-10.3682
▁tart	-10.3682
oche	-10.3683
▁lash	-10.3688
▁chuck	-10.3689
▁convers	-10.369
cairn	-10.3692
▁breath	-10.3692
▁humm	-10.3693
▁tread	-10.3697
bottom	-10.3697
▁rack	-10.37
▁verb	-10.3704
cake	-10.3704
▁lodg	-10.3705
▁rank	-10.3707
arth	-10.3711
▁relat	-10.3714
▁suppli	-10.3715
▁liqu	-10.3717
▁hug	-10.3722
scription	-10.3725
quier	-10.3726
▁ratt	-10.3728
▁drap	-10.3731
▁crisp	-10.3732
▁muff	-10.3732
▁ostr	-10.3739
▁grass	-10.3741
▁magnet	-10.3744
▁hook	-10.3745
▁dress	-10.3749
▁morn	-10.3751
▁sax	-10.3753
▁jug	-10.3754
▁canon	-10.3754
▁servi	-10.3759
▁statu	-10.376
▁athen	-10.3762
▁caff	-10.3764
▁mop	-10.3771
gree	-10.3772
azar	-10.3773
walk	-10.3777
▁cunn	-10.3778
rink	-10.3782
▁fid	-10.3782
▁weak	-10.3789
▁brass	-10.379
evna	-10.3792
▁merry	-10.3793
▁cush	-10.3794
▁rif	-10.3802
igno	-10.3811
▁they	-10.3811
▁shep	-10.3814
▁hopp	-10.3815
▁befo	-10.3818
▁hatt	-10.3819
▁glow	-10.3823
▁jag	-10.3824
▁pam	-10.3828
felt	-10.3829
▁slim	-10.3833
▁tooth	-10.3842
▁hump	-10.3843
straw	-10.3852
▁bagg	-10.3856
▁wheat	-10.3861
▁rim	-10.3871
▁sass	-10.3873
▁capp	-10.3878
▁seem	-10.3879
▁brin	-10.3881
▁whale	-10.3883
▁lark	-10.3885
▁dogg	-10.3893
▁key	-10.3893
▁louis	-10.3896
nica	-10.3903
craw	-10.3905
▁evan	-10.3911
▁kot	-10.3918
dolf	-10.3922
▁dix	-10.3926
▁dit	-10.3928
▁amaz	-10.3931
▁cyn	-10.3935
▁recon	-10.3938
▁corre	-10.3941
▁murd	-10.3949
▁patter	-10.3952
▁spect	-10.3954
wit	-10.3955
▁partic	-10.3959
▁august	-10.3962
▁vinc	-10.3974
▁clod	-10.3976
▁sport	-10.398
▁chris	-10.3991
pah	-10.3993
▁deni	-10.3996
▁bren	-10.3997
▁brew	-10.3998
helm	-10.4001
graf	-10.4002
▁kai	-10.4007
▁asc	-10.4007
▁tad	-10.4008
graphic	-10.4017
▁pain	-10.4024
mpton	-10.4025
▁state	-10.4026
▁mush	-10.4029
▁cole	-10.4029
making	-10.4039
▁direct	-10.4042
isch	-10.4048
▁brit	-10.4049
▁thri	-10.4054
iron	-10.4055
▁burl	-10.4065
▁alex	-10.4074
▁llan	-10.4074
▁cray	-10.4082
▁sali	-10.4082
▁better	-10.4091
▁mug	-10.4093
▁coal	-10.4101
▁paint	-10.4105
▁near	-10.4107
▁dart	-10.4108
▁respect	-10.4111
▁arist	-10.4115
rite	-10.4116
dieu	-10.4126
▁feu	-10.4138
▁kim	-10.4147
stern	-10.4149
▁express	-10.4152
▁tort	-10.4152
▁stun	-10.4158
ike	-10.4161
▁philo	-10.417
terre	-10.4171
▁caul	-10.4173
oga	-10.4178
establish	-10.4185
▁infant	-10.4186
▁sting	-10.4189
▁illumin	-10.4192
inted	-10.4193
▁oil	-10.4195
▁nikola	-10.4197
▁knight	-10.4199
▁grow	-10.4201
▁possess	-10.4201
▁blond	-10.4203
▁drink	-10.4204
▁present	-10.4207
▁peace	-10.4208
▁maxim	-10.4212
▁utter	-10.4216
▁kop	-10.4217
▁wander	-10.422
▁nom	-10.422
▁boom	-10.4221
▁loos	-10.4225
toun	-10.4227
▁rond	-10.4232
▁smart	-10.4234
▁consol	-10.4236
▁figur	-10.4237
▁hagg	-10.4237
▁seraph	-10.4237
▁hed	-10.4238
▁much	-10.4251
▁robb	-10.4256
▁tramp	-10.4268
▁wether	-10.4271
▁nether	-10.4279
▁lazar	-10.4279
▁push	-10.4281
▁medic	-10.4287
hari	-10.4288
text	-10.4294
▁refer	-10.4296
▁sieg	-10.4297
▁higg	-10.4298
▁centr	-10.4303
▁cold	-10.4306
▁chim	-10.4306
▁warn	-10.4313
fax	-10.4326
icht	-10.4326
▁troll	-10.4329
▁crag	-10.4334
▁eury	-10.4334
▁styl	-10.4338
▁coach	-10.434
▁envi	-10.4341
▁special	-10.4343
▁speak	-10.4352
▁mitt	-10.4355
morris	-10.4369
ungu	-10.437
▁spirit	-10.4371
▁bonn	-10.4373
▁quarter	-10.4378
▁dish	-10.4379
endorf	-10.4384
▁drag	-10.4384
▁tribu	-10.4387
▁dic	-10.4388
▁lance	-10.4394
math	-10.4395
▁brod	-10.4396
▁elv	-10.4396
▁quart	-10.4402
▁vibr	-10.4404
▁pudd	-10.4409
▁tender	-10.4413
▁sack	-10.4416
▁bowl	-10.4416
▁beam	-10.4416
▁bouch	-10.4416
▁meg	-10.4417
▁insul	-10.442
▁bess	-10.4422
▁aman	-10.4432
paw	-10.4433
▁fred	-10.4433
▁daub	-10.4434
▁fai	-10.4437
▁stay	-10.4441
▁game	-10.4441
▁noth	-10.4445
▁leth	-10.4446
escence	-10.4455
▁topp	-10.4458
iki	-10.446
▁view	-10.4465
olla	-10.4467
▁dent	-10.4468
▁zen	-10.4472
▁pacific	-10.4477
▁bez	-10.4484
▁raz	-10.4484
▁bout	-10.4488
▁bend	-10.4494
▁link	-10.4496
▁reck	-10.4497
pital	-10.45
▁adv	-10.4503
▁imagin	-10.4503
▁machin	-10.4509
▁mott	-10.451
▁demon	-10.451
▁warm	-10.4517
▁tast	-10.4526
▁haver	-10.4526
know	-10.4526
fell	-10.4538
▁glor	-10.454
tide	-10.4541
▁ribb	-10.4562
▁arti	-10.4564
▁minor	-10.4572
▁firm	-10.4573
people	-10.4591
▁linn	-10.4596
▁theolog	-10.46
▁sound	-10.4612
▁err	-10.4614
▁roma	-10.4616
▁mech	-10.4616
▁hero	-10.4616
▁change	-10.4618
glass	-10.462
▁peck	-10.4625
▁might	-10.4634
▁shoo	-10.464
▁luck	-10.4642
▁felici	-10.4642
▁virtu	-10.465
quil	-10.4652
▁sour	-10.4656
▁french	-10.4656
▁chatt	-10.4657
▁sud	-10.4665
▁vande	-10.4669
▁crou	-10.4672
▁raff	-10.4673
▁mog	-10.4693
▁now	-10.4705
▁gust	-10.471
▁cram	-10.4717
▁cell	-10.4723
cam	-10.4725
▁nem	-10.473
▁frey	-10.4735
▁scandal	-10.4741
▁plough	-10.4743
▁whirl	-10.4744
▁nichol	-10.4745
▁modern	-10.4746
pocket	-10.4746
iferous	-10.4747
▁social	-10.4752
▁invent	-10.4752
▁design	-10.4753
beg	-10.4754
horse	-10.476
▁gird	-10.4763
▁border	-10.4763
▁prepar	-10.4763
▁steep	-10.4764
▁karl	-10.4765
drift	-10.4766
▁saint	-10.4767
amour	-10.4767
▁chamber	-10.4768
▁cim	-10.4769
▁advent	-10.4771
▁buzz	-10.4771
▁stubb	-10.4772
bull	-10.4775
▁mourn	-10.4775
▁kou	-10.4778
▁scrut	-10.4779
▁kemp	-10.4781
▁memori	-10.4784
▁tull	-10.4784
▁flex	-10.4784
▁flash	-10.4786
▁pump	-10.4786
▁truck	-10.4788
▁trembl	-10.4788
▁predic	-10.4793
loup	-10.4798
▁content	-10.48
lade	-10.4801
▁hap	-10.4803
▁critic	-10.4806
▁finger	-10.4808
▁husk	-10.481
▁laz	-10.4811
▁procur	-10.4812
▁toot	-10.4815
aceous	-10.4815
▁lumber	-10.4819
▁peep	-10.4826
▁salut	-10.4827
eagle	-10.4828
▁flit	-10.4828
▁root	-10.4831
▁duch	-10.4833
oscope	-10.4834
casse	-10.4845
▁scud	-10.4846
▁quiet	-10.4847
▁accus	-10.4848
▁keel	-10.4851
▁corri	-10.4851
goose	-10.486
▁null	-10.4861
falcon	-10.4862
▁preach	-10.4862
▁letter	-10.4862
▁method	-10.4863
▁gond	-10.487
▁pug	-10.4873
▁fitt	-10.4875
▁tsar	-10.4875
frid	-10.4875
▁wren	-10.4877
▁resist	-10.4878
ything	-10.4881
▁liver	-10.4881
▁solid	-10.4885
▁sach	-10.4888
▁bunk	-10.4888
▁minim	-10.4891
▁samo	-10.4892
▁electro	-10.4892
trix	-10.4897
▁fum	-10.4898
▁driv	-10.4898
▁sera	-10.4901
▁colo	-10.4903
▁doubl	-10.4904
▁perm	-10.4909
▁somer	-10.491
loom	-10.491
▁pound	-10.4913
▁widd	-10.4914
▁suit	-10.4914
▁needle	-10.4915
▁strip	-10.4917
▁quant	-10.4921
▁bless	-10.4926
▁nine	-10.4927
▁skill	-10.4932
▁loth	-10.4932
▁limp	-10.4936
▁pinn	-10.4937
cession	-10.4943
▁eight	-10.4944
made	-10.4944
▁ghe	-10.4945
▁diet	-10.4946
▁angli	-10.4955
▁pinch	-10.4957
▁juda	-10.4958
▁morr	-10.4964
▁pasqu	-10.4964
▁thal	-10.4964
▁loud	-10.4971
▁repos	-10.4976
▁vign	-10.4986
▁gild	-10.499
▁toy	-10.499
▁chok	-10.499
▁trud	-10.4991
▁nurse	-10.4992
ieux	-10.5002
▁colli	-10.5003
fried	-10.5013
▁gry	-10.5015
▁magg	-10.5023
ground	-10.5027
▁tog	-10.503
▁terra	-10.5032
▁adam	-10.5037
ippe	-10.504
▁semp	-10.5045
ddock	-10.5046
▁jem	-10.5053
broke	-10.5057
▁kep	-10.5066
▁schul	-10.5088
▁yam	-10.5091
▁tex	-10.5091
▁manner	-10.5095
▁vot	-10.5096
▁alter	-10.5097
▁bonne	-10.51
▁shah	-10.5107
wana	-10.5114
▁open	-10.5115
▁crown	-10.5119
▁gull	-10.512
crow	-10.5121
▁blaz	-10.5124
▁sinn	-10.5125
luck	-10.5125
▁unbl	-10.5131
zac	-10.5134
▁feli	-10.5141
▁danc	-10.5152
brace	-10.5158
▁enter	-10.5165
zio	-10.5166
hot	-10.5167
butt	-10.5167
▁frau	-10.5168
▁prin	-10.5175
▁gag	-10.5177
▁dram	-10.518
itza	-10.5185
▁hex	-10.5189
▁tend	-10.5196
▁chel	-10.5199
▁corp	-10.5205
ulph	-10.5206
▁zeb	-10.5208
▁lamm	-10.5208
▁peru	-10.5208
mitted	-10.521
▁easter	-10.5213
uki	-10.5217
▁corv	-10.5219
▁chiv	-10.522
chak	-10.5221
▁consider	-10.5223
▁confu	-10.5224
gone	-10.5233
▁phra	-10.5242
▁heal	-10.5245
crest	-10.5249
▁redd	-10.5264
▁batter	-10.5265
▁desir	-10.5267
▁laure	-10.5269
▁monc	-10.5272
▁thar	-10.5282
▁nec	-10.5285
▁ragg	-10.5291
▁nipp	-10.5293
▁coin	-10.5295
▁grati	-10.5298
▁heid	-10.5309
ellan	-10.5311
▁hyp	-10.5311
▁advis	-10.5317
▁brag	-10.5326
▁determin	-10.5329
▁obscur	-10.5329
▁ghost	-10.5329
▁complain	-10.533
▁oblig	-10.5331
▁revolution	-10.5331
▁blunder	-10.5332
▁excit	-10.5332
▁national	-10.5337
hagen	-10.5337
blanc	-10.5338
▁mountain	-10.534
▁search	-10.5341
▁decor	-10.5343
▁induc	-10.5345
▁lion	-10.5346
▁demo	-10.5347
▁demi	-10.5347
▁trench	-10.5347
▁stuff	-10.5348
▁squar	-10.5352
▁question	-10.5354
▁treb	-10.5355
▁zam	-10.5358
▁wink	-10.5359
▁basili	-10.5367
▁favor	-10.5369
▁common	-10.537
▁bard	-10.5371
▁pest	-10.5381
▁bernard	-10.5382
▁quot	-10.5388
▁graz	-10.5389
▁rapp	-10.5392
▁bac	-10.5392
▁rayn	-10.5401
▁trade	-10.5404
▁crock	-10.5406
▁suppos	-10.5412
chou	-10.5416
glia	-10.5422
▁damn	-10.5425
▁correct	-10.5426
▁bib	-10.5426
▁pamp	-10.5427
▁fann	-10.5429
▁prick	-10.543
▁year	-10.5432
handed	-10.5433
arius	-10.5433
ggy	-10.5434
atura	-10.5435
▁bent	-10.5436
▁revel	-10.5441
nished	-10.5441
▁nah	-10.5443
▁major	-10.5443
▁pastor	-10.5446
physi	-10.5449
▁motor	-10.5451
▁yon	-10.5458
▁rasp	-10.546
▁cet	-10.5466
▁rash	-10.5468
faith	-10.5468
▁fram	-10.5469
▁ventur	-10.5471
▁huss	-10.5473
▁steel	-10.5473
▁shen	-10.5474
▁hobb	-10.5474
▁signor	-10.5479
ulated	-10.549
▁base	-10.5495
▁abu	-10.5499
▁nettle	-10.5503
▁monk	-10.5503
▁numb	-10.5506
brun	-10.5508
bright	-10.5508
onde	-10.5508
▁jul	-10.5509
▁tax	-10.5509
▁mom	-10.551
itre	-10.5517
colomb	-10.5517
▁yaw	-10.5518
▁wot	-10.5519
▁scor	-10.5522
baud	-10.5522
▁coco	-10.5523
ombre	-10.5534
ovski	-10.5544
nigan	-10.5551
▁rugg	-10.5556
▁kah	-10.5562
▁gord	-10.5567
ambul	-10.5572
▁noon	-10.5576
force	-10.5579
▁birch	-10.5579
▁branch	-10.5581
plate	-10.5587
▁hogg	-10.5591
voir	-10.5593
▁cac	-10.5595
▁mumm	-10.56
brooke	-10.5603
▁hald	-10.5606
▁heather	-10.5609
▁unpa	-10.561
▁kidd	-10.5617
▁cic	-10.5622
▁shutt	-10.5624
▁judg	-10.5625
▁burk	-10.5626
▁dill	-10.5627
▁rent	-10.5627
anche	-10.5631
▁brent	-10.5633
▁campan	-10.5633
church	-10.5635
bottle	-10.5637
▁marm	-10.5638
▁damp	-10.5643
▁typ	-10.5646
▁lever	-10.5648
▁fav	-10.5665
▁sitt	-10.568
▁true	-10.568
▁nip	-10.568
▁gloss	-10.5681
▁falk	-10.5683
▁catt	-10.5689
▁tack	-10.5696
brahm	-10.5714
▁copp	-10.5714
▁shiv	-10.5718
▁crom	-10.5722
▁bot	-10.5734
▁cress	-10.5735
frog	-10.5735
▁dough	-10.5736
urban	-10.5738
▁nou	-10.5744
crist	-10.5749
flesh	-10.5759
quita	-10.5768
▁ebb	-10.5773
▁sudd	-10.5776
▁norman	-10.5777
▁chad	-10.5783
▁rau	-10.5788
▁robin	-10.5795
▁suck	-10.5797
▁crav	-10.5808
▁montre	-10.5811
▁sale	-10.5813
▁belt	-10.5814
▁tarn	-10.5814
▁astra	-10.5821
▁excell	-10.5835
▁kron	-10.5836
▁pigg	-10.5841
▁object	-10.5853
▁pash	-10.5854
worn	-10.5855
▁sauv	-10.5866
▁tool	-10.5878
raine	-10.5879
muth	-10.588
buk	-10.5884
wound	-10.5894
opolis	-10.5899
▁quit	-10.59
▁lanc	-10.59
▁wab	-10.5905
elius	-10.591
arme	-10.5911
quito	-10.5913
▁brok	-10.5913
▁arrow	-10.5914
ippus	-10.5921
▁purg	-10.5921
accio	-10.5926
▁hamp	-10.593
roff	-10.5937
▁rect	-10.5938
▁nub	-10.5949
▁rhapsod	-10.5954
▁perpetu	-10.5954
▁american	-10.5954
▁employ	-10.5954
▁declar	-10.5955
▁scatter	-10.5955
▁meadow	-10.5955
▁suffer	-10.5956
adine	-10.5957
blossom	-10.5957
▁decre	-10.5959
▁jaw	-10.596
▁would	-10.596
▁domestic	-10.5962
▁maul	-10.5962
kyn	-10.5962
▁fenn	-10.5963
▁tempor	-10.5965
▁eugen	-10.5967
▁straight	-10.5967
▁cigar	-10.5969
▁mole	-10.597
▁disput	-10.5972
▁raj	-10.5976
▁jacque	-10.5981
▁slipp	-10.5982
▁reform	-10.5987
▁faint	-10.5988
▁saddle	-10.5988
▁schoen	-10.5989
▁flipp	-10.5991
▁confess	-10.5994
quam	-10.5996
▁learn	-10.5996
▁omni	-10.5998
▁prefer	-10.5998
▁samar	-10.6001
▁protest	-10.6001
ushka	-10.6007
tje	-10.601
▁scant	-10.601
▁simm	-10.6017
▁colour	-10.6021
▁lilli	-10.6021
▁fabric	-10.6023
▁twin	-10.6024
▁birth	-10.6024
▁divers	-10.6033
▁cotton	-10.6036
▁fail	-10.6037
▁weep	-10.6037
lady	-10.6046
▁tight	-10.6047
▁fasc	-10.6048
▁thomas	-10.6049
▁cheek	-10.6049
▁kul	-10.605
▁reviv	-10.6053
▁papa	-10.6054
▁sight	-10.6055
▁dot	-10.6056
▁mold	-10.6056
▁pursu	-10.606
ibi	-10.6064
loff	-10.6067
enau	-10.6071
▁kern	-10.6072
▁spear	-10.6076
▁imb	-10.6078
▁seed	-10.6079
▁cannon	-10.608
▁loren	-10.6082
▁premi	-10.6084
▁nann	-10.6088
ucci	-10.6091
opped	-10.6092
▁wun	-10.6093
▁deci	-10.6103
▁tyn	-10.6108
leeve	-10.6111
▁mix	-10.6112
graph	-10.6112
▁rul	-10.6112
▁trow	-10.6113
▁clen	-10.6114
▁sixt	-10.6114
▁wax	-10.6114
gold	-10.612
▁gret	-10.6122
▁kum	-10.6123
▁idol	-10.6124
▁snak	-10.6132
▁fog	-10.6141
taine	-10.6149
▁goat	-10.6151
abad	-10.6151
▁trott	-10.6153
▁hurt	-10.6153
close	-10.6168
▁jolli	-10.6168
▁lef	-10.6176
▁calc	-10.6179
▁waver	-10.6184
▁chair	-10.6191
▁regi	-10.6193
annon	-10.6204
▁hurd	-10.6206
▁teach	-10.621
▁lach	-10.6216
▁ramb	-10.6224
▁stel	-10.6233
▁buch	-10.624
▁jugg	-10.6241
▁consult	-10.6242
ovsk	-10.6249
▁dau	-10.6253
clothes	-10.6256
▁strid	-10.627
▁dat	-10.6273
▁gast	-10.6282
▁ideal	-10.6283
stoke	-10.6285
▁lath	-10.6286
▁mic	-10.6292
▁tali	-10.6296
▁trist	-10.6298
olite	-10.63
▁gem	-10.6303
vaux	-10.6308
▁steal	-10.6309
▁deva	-10.6318
▁pomm	-10.6321
▁profes	-10.6321
▁marco	-10.6323
▁balm	-10.6325
aylor	-10.6326
▁jett	-10.6329
zell	-10.6331
▁faw	-10.6334
▁list	-10.6338
royd	-10.6343
wheel	-10.6348
▁jav	-10.635
▁jab	-10.6352
▁finn	-10.6373
▁polic	-10.638
▁limb	-10.6381
michel	-10.6383
▁skid	-10.6389
hima	-10.639
▁vint	-10.6394
arge	-10.6409
brian	-10.6413
▁brev	-10.6414
▁hail	-10.6416
▁pitch	-10.6428
effer	-10.643
taking	-10.6434
▁parent	-10.6438
▁tamb	-10.644
▁nast	-10.6441
▁glum	-10.6441
▁camar	-10.6444
▁coom	-10.6445
▁quest	-10.6445
▁wail	-10.6453
chang	-10.6453
suke	-10.6456
▁hadd	-10.6465
▁torre	-10.6483
▁nak	-10.6486
▁gasp	-10.6498
▁lull	-10.6501
▁luk	-10.6507
cope	-10.6517
▁elk	-10.6518
▁dumb	-10.6521
▁stamp	-10.6522
▁paris	-10.6533
plex	-10.6534
▁kash	-10.6545
▁dinn	-10.6548
uku	-10.6553
▁whip	-10.6554
▁glob	-10.6555
▁quel	-10.6555
hammer	-10.6556
▁fib	-10.6563
▁manag	-10.6565
▁beng	-10.6566
▁get	-10.6571
ject	-10.6573
▁left	-10.6586
▁improv	-10.6587
conda	-10.6588
▁hamm	-10.6588
▁lenn	-10.6589
▁nett	-10.6595
▁garv	-10.66
▁print	-10.6602
▁dispos	-10.6608
▁expect	-10.6611
▁hur	-10.6616
▁experiment	-10.662
▁sentimental	-10.662
▁corrupt	-10.662
▁legislat	-10.662
▁eulogi	-10.6621
▁solemn	-10.6621
▁sublim	-10.6622
▁arbitr	-10.6622
embarras	-10.6622
▁slumber	-10.6622
▁wrang	-10.6623
▁pok	-10.6623
▁affect	-10.6623
▁baha	-10.6624
▁project	-10.6624
fontein	-10.6625
▁sniff	-10.6625
▁oppress	-10.6625
▁canvas	-10.6626
▁propriet	-10.6627
▁separat	-10.6629
▁shirt	-10.6631
▁lew	-10.6631
▁select	-10.6632
▁slack	-10.6633
▁borrow	-10.6634
▁shadow	-10.6636
▁fight	-10.6636
▁shovel	-10.6637
▁deliver	-10.664
▁galvan	-10.664
▁pavl	-10.6641
▁eusta	-10.6641
▁second	-10.6643
yama	-10.6643
▁termin	-10.6644
▁blink	-10.6651
▁scout	-10.6652
donald	-10.6654
▁stump	-10.6656
▁grumb	-10.6658
▁larr	-10.6658
▁sugar	-10.6661
▁jani	-10.6662
▁lift	-10.6664
▁aquil	-10.6666
▁jigg	-10.6666
▁when	-10.6666
▁blam	-10.6671
▁trimm	-10.6671
▁intens	-10.6672
ologist	-10.6674
▁cob	-10.6678
▁sort	-10.668
▁jamb	-10.6685
▁tweed	-10.6685
▁shock	-10.6685
▁physic	-10.6687
▁ponder	-10.6695
▁purpos	-10.6697
▁gather	-10.67
▁snapp	-10.6702
▁lump	-10.6704
enbach	-10.6705
atlan	-10.6706
▁subsid	-10.6707
▁morgan	-10.671
▁maud	-10.6719
nix	-10.672
▁broom	-10.672
lund	-10.672
▁nant	-10.6725
▁dall	-10.6725
▁jaff	-10.6725
▁futur	-10.6725
▁novel	-10.6726
▁throw	-10.673
▁pint	-10.6733
▁whisk	-10.6735
▁scamp	-10.6735
▁senn	-10.6737
▁regard	-10.6741
▁esch	-10.6746
▁pelt	-10.6746
▁brack	-10.6747
▁chateau	-10.6752
▁fatt	-10.6753
▁chitt	-10.6758
▁sooth	-10.6758
▁forgiv	-10.6762
▁flori	-10.6764
▁button	-10.6764
▁kick	-10.6765
▁operat	-10.6768
▁dorn	-10.6769
▁hull	-10.6769
▁skim	-10.677
▁priest	-10.677
▁ruin	-10.6774
▁profan	-10.6776
▁engle	-10.6781
▁fried	-10.6781
▁ayr	-10.6781
▁argu	-10.6784
▁vat	-10.6785
▁dac	-10.6792
▁switch	-10.6793
▁toad	-10.6797
▁peach	-10.6801
▁rei	-10.6802
camp	-10.6802
▁ferri	-10.6806
illac	-10.6808
▁whipp	-10.6818
▁sind	-10.6828
▁never	-10.6836
▁jail	-10.6836
▁surf	-10.6837
▁troubl	-10.6844
▁cir	-10.6845
foil	-10.6848
▁prett	-10.685
▁patch	-10.6852
▁latin	-10.6856
▁defin	-10.686
▁vine	-10.6871
▁symbol	-10.6874
crates	-10.6874
▁forr	-10.6878
▁central	-10.6878
▁renn	-10.6879
▁animal	-10.6879
▁fiddl	-10.6884
▁bibli	-10.6885
▁gamm	-10.6889
▁murder	-10.6889
▁dorri	-10.6899
▁punch	-10.6904
▁that	-10.6906
▁could	-10.6909
▁sword	-10.691
▁chaste	-10.6911
▁spill	-10.6913
▁zul	-10.6913
▁hern	-10.6915
▁frow	-10.6915
▁laund	-10.692
▁perri	-10.6923
▁hilar	-10.6928
▁lynd	-10.693
▁tyranni	-10.6931
▁symp	-10.6938
▁quill	-10.694
▁ambr	-10.6941
▁chop	-10.6944
▁princip	-10.6948
▁pierc	-10.6951
▁monopol	-10.6957
▁rosal	-10.696
▁levit	-10.6962
▁shore	-10.697
▁cyr	-10.6976
▁naw	-10.6978
▁herod	-10.6984
▁tibb	-10.699
lawn	-10.6993
▁stopp	-10.6998
▁corne	-10.7
▁job	-10.7006
▁scorn	-10.7011
▁polit	-10.7012
ignon	-10.7018
▁spad	-10.702
ternal	-10.702
nico	-10.7021
▁calm	-10.7024
▁lith	-10.7025
▁keen	-10.7034
▁conduct	-10.7039
▁trait	-10.7045
muz	-10.705
▁local	-10.7055
imus	-10.7064
▁develop	-10.7067
chette	-10.7078
vich	-10.7084
▁dobb	-10.7088
▁tup	-10.7097
▁owl	-10.7099
▁surg	-10.7101
▁pupp	-10.7102
▁temper	-10.7102
▁capri	-10.7113
▁salam	-10.7114
feather	-10.7115
bek	-10.7119
witt	-10.712
▁silk	-10.7136
▁geo	-10.7141
▁theori	-10.7141
▁orr	-10.7146
▁verg	-10.7149
oya	-10.7149
▁psycho	-10.7149
▁herman	-10.7153
▁weari	-10.7161
▁order	-10.7161
▁economi	-10.7163
▁eras	-10.7166
▁english	-10.7178
▁haid	-10.7178
▁wap	-10.7178
view	-10.7183
▁chapp	-10.7186
zek	-10.7187
▁scrap	-10.7192
▁murr	-10.7203
▁tripp	-10.7206
▁lax	-10.7207
▁stew	-10.722
▁charl	-10.7222
annah	-10.7227
thorp	-10.7235
▁bever	-10.7235
▁tempt	-10.7244
▁tug	-10.7252
▁roc	-10.7253
estri	-10.7266
course	-10.7272
▁actu	-10.7275
▁term	-10.7287
▁levi	-10.7288
▁royal	-10.7291
▁lean	-10.7313
▁stop	-10.7334
▁commission	-10.7335
obstruct	-10.7335
▁immortal	-10.7335
▁construct	-10.7335
▁return	-10.7335
▁answer	-10.7335
▁necessit	-10.7335
▁length	-10.7335
contradict	-10.7335
▁enjoy	-10.7336
▁joseph	-10.7336
▁convuls	-10.7336
▁crypt	-10.7336
▁fright	-10.7337
▁defend	-10.7337
interpret	-10.7337
▁account	-10.7337
▁scull	-10.7337
▁wilhelm	-10.7337
▁sweep	-10.7338
▁malign	-10.7339
▁snuff	-10.7339
▁preserv	-10.7339
▁leather	-10.7339
▁contract	-10.734
▁manch	-10.7343
▁familiar	-10.7344
winkle	-10.7344
▁thumb	-10.7345
▁seduc	-10.7347
▁stephan	-10.7349
▁receiv	-10.7349
▁glam	-10.7349
▁build	-10.735
▁kettle	-10.7351
▁labour	-10.7351
score	-10.7352
▁fault	-10.7354
▁dulci	-10.7355
▁humour	-10.7357
▁mould	-10.7358
▁frederic	-10.7359
▁depart	-10.736
▁shaft	-10.7361
▁oppos	-10.7364
▁berri	-10.7365
▁cambr	-10.7365
strasse	-10.7366
▁billi	-10.7368
▁elder	-10.7369
▁believ	-10.7371
▁intend	-10.7371
▁harrow	-10.7377
▁electr	-10.7377
conscious	-10.7377
▁athel	-10.7383
▁attend	-10.7385
▁punish	-10.7387
▁dawn	-10.7387
▁alma	-10.739
▁craig	-10.7392
▁rho	-10.7393
▁gaff	-10.7395
▁caesar	-10.7398
▁lime	-10.7398
▁stack	-10.7399
screen	-10.74
▁clari	-10.7404
▁proud	-10.7407
▁wadd	-10.7409
▁heg	-10.741
▁refin	-10.7412
▁roof	-10.7416
▁spoil	-10.7417
dorff	-10.7418
metric	-10.7421
▁ketch	-10.7421
▁wimp	-10.7422
▁quack	-10.7425
pati	-10.7431
▁numer	-10.7431
▁fry	-10.7432
▁griev	-10.7437
▁minut	-10.7437
▁repent	-10.7442
▁agg	-10.7442
fluent	-10.7443
▁delight	-10.745
▁spell	-10.7451
▁steam	-10.7454
▁calcul	-10.7455
▁niv	-10.7457
▁slap	-10.7459
univers	-10.7461
▁jump	-10.7465
▁spott	-10.7471
▁stup	-10.7475
▁unhe	-10.7478
▁pup	-10.748
cephal	-10.7482
▁mong	-10.7482
▁nour	-10.7482
▁carbon	-10.7484
▁clap	-10.7485
mouse	-10.7487
▁crump	-10.7487
▁floor	-10.7489
▁robert	-10.7489
▁rug	-10.7491
▁week	-10.7492
▁grill	-10.7495
▁lux	-10.7497
▁vex	-10.7499
▁task	-10.75
ography	-10.7504
▁spy	-10.7504
▁harb	-10.751
▁lumin	-10.7512
▁spoon	-10.7514
▁station	-10.7515
brunn	-10.7518
acci	-10.753
▁epic	-10.7536
▁flatter	-10.7536
rank	-10.754
▁claus	-10.7551
▁revis	-10.7554
▁bev	-10.7555
▁apologi	-10.7563
▁thru	-10.7563
▁frei	-10.7568
▁dump	-10.7568
▁hollow	-10.757
icular	-10.7571
▁tartar	-10.7572
▁plow	-10.7573
▁pict	-10.7577
▁track	-10.7582
garten	-10.7582
▁vast	-10.7583
▁defi	-10.7584
enthal	-10.7591
▁imme	-10.7602
▁cach	-10.7607
▁tract	-10.7617
▁exact	-10.7621
▁abra	-10.7625
▁aul	-10.763
▁mez	-10.7635
▁jewel	-10.7636
▁dull	-10.7641
▁batch	-10.7645
grew	-10.7651
holt	-10.7656
▁marti	-10.7665
▁timber	-10.7668
▁bulg	-10.7668
▁kak	-10.7671
▁leas	-10.7682
▁etern	-10.7684
apped	-10.7692
▁alien	-10.7693
▁slick	-10.771
drive	-10.7711
▁stav	-10.7719
▁meek	-10.7728
▁joli	-10.7732
▁scalp	-10.7735
▁caz	-10.774
while	-10.7751
▁shant	-10.7753
celle	-10.7754
▁mortal	-10.7764
▁rustic	-10.7768
iving	-10.7768
▁thron	-10.7774
arium	-10.7783
▁hubb	-10.7794
▁candle	-10.7795
▁wigg	-10.7798
▁dabb	-10.78
▁trail	-10.7801
▁amal	-10.7802
▁whar	-10.7807
▁pair	-10.7816
▁prior	-10.782
▁bulk	-10.7823
▁patric	-10.7825
▁marri	-10.7828
bath	-10.7832
▁crimin	-10.7834
▁wher	-10.7838
izzy	-10.7839
▁brum	-10.7839
shiel	-10.7842
▁chaw	-10.7844
▁dott	-10.7845
▁script	-10.7849
▁instruct	-10.7861
▁wul	-10.7863
▁gentil	-10.7867
toria	-10.7874
▁basket	-10.788
▁detect	-10.789
▁bubb	-10.7896
▁knob	-10.7898
▁isol	-10.7899
▁them	-10.7929
▁chet	-10.7939
▁blum	-10.7949
knot	-10.7949
agus	-10.7949
▁jeho	-10.795
▁bogg	-10.7952
▁buc	-10.7955
▁three	-10.7965
grass	-10.797
▁doct	-10.797
▁politic	-10.7971
▁chamb	-10.798
▁keep	-10.7986
recht	-10.7992
▁last	-10.7993
▁philip	-10.8007
uhl	-10.8007
▁wam	-10.801
▁corpor	-10.8015
▁shand	-10.8016
▁amber	-10.8023
▁prosper	-10.8025
▁ull	-10.8045
fowl	-10.8048
▁accept	-10.8049
pun	-10.8058
▁fortun	-10.8062
▁flatt	-10.8064
▁produc	-10.8065
emberg	-10.8065
▁dago	-10.8074
▁terror	-10.8079
▁rear	-10.8084
▁khar	-10.8088
▁conserv	-10.809
▁individu	-10.8097
▁progres	-10.8098
owsky	-10.8103
▁distribut	-10.8104
▁explor	-10.8104
▁council	-10.8104
▁exempl	-10.8104
▁prospect	-10.8104
▁tranquill	-10.8104
▁saturn	-10.8104
▁benefic	-10.8104
▁inspect	-10.8104
▁benedict	-10.8104
▁invalid	-10.8104
▁triumph	-10.8104
▁practic	-10.8104
bock	-10.8104
egypt	-10.8104
▁effect	-10.8104
▁murmur	-10.8105
clusive	-10.8105
▁swift	-10.8105
▁smooth	-10.8105
▁whisper	-10.8105
▁treasur	-10.8105
fontaine	-10.8105
▁strateg	-10.8105
▁kidnap	-10.8105
▁luxuri	-10.8106
▁particular	-10.8106
▁michael	-10.8106
▁drown	-10.8106
▁anchor	-10.8107
▁distill	-10.8107
▁injur	-10.8108
▁conquer	-10.8108
▁commend	-10.8108
▁examin	-10.8108
▁adapt	-10.8109
▁valentin	-10.8109
▁favour	-10.811
▁cecil	-10.811
▁inquir	-10.811
▁deposit	-10.8112
▁prevent	-10.8112
▁thorough	-10.8112
▁kok	-10.8112
▁pretend	-10.8112
▁scragg	-10.8112
▁sorrow	-10.8113
▁secular	-10.8113
▁pauper	-10.8113
lala	-10.8114
▁compar	-10.8114
▁martyr	-10.8115
investigat	-10.8115
▁swear	-10.8116
▁shift	-10.8116
▁flint	-10.8118
▁promis	-10.8118
▁bishop	-10.8119
▁cherub	-10.8121
▁penetr	-10.8121
▁perform	-10.8121
▁mexi	-10.8122
▁conform	-10.8122
▁engine	-10.8124
▁extrem	-10.8124
kau	-10.8126
▁welcom	-10.8126
▁crumb	-10.8128
▁tavern	-10.8132
▁patrol	-10.8134
▁growl	-10.8136
▁navig	-10.8136
▁steven	-10.8138
▁sweat	-10.8138
▁fontan	-10.8139
▁vocal	-10.814
▁telegraph	-10.814
▁wrest	-10.8141
zak	-10.8142
▁brother	-10.8143
▁subtil	-10.8143
hoof	-10.8144
▁gwyn	-10.8145
▁imitat	-10.8146
▁raft	-10.8146
▁assign	-10.8147
▁maple	-10.8148
▁delphi	-10.8149
▁improvis	-10.8154
▁seal	-10.8155
▁depend	-10.8158
▁fritz	-10.8158
▁phillip	-10.8159
▁dunk	-10.816
▁consum	-10.8161
▁fusi	-10.8162
lingford	-10.8162
▁heir	-10.8165
homme	-10.8166
▁armor	-10.8166
▁poison	-10.8167
▁first	-10.8168
▁mediat	-10.817
▁reserv	-10.8171
▁climb	-10.8172
▁humor	-10.8172
▁psych	-10.8174
▁benign	-10.8175
▁creep	-10.8176
lieve	-10.8176
▁desert	-10.8176
▁satan	-10.8177
▁belong	-10.8181
▁modest	-10.8182
▁move	-10.8183
goff	-10.8188
▁clement	-10.8188
▁loath	-10.819
▁hutch	-10.8193
lastic	-10.8194
▁communica	-10.8195
richard	-10.8196
▁dutch	-10.8199
▁george	-10.82
omaniac	-10.82
▁cuff	-10.8201
▁boon	-10.8203
▁hitch	-10.8205
▁hitt	-10.8208
▁novi	-10.8208
▁brou	-10.8211
▁coast	-10.8212
▁whim	-10.8213
▁fash	-10.8216
▁biff	-10.8217
▁drom	-10.822
▁pak	-10.8222
▁alph	-10.8226
▁weiss	-10.8228
▁planet	-10.8233
▁ridd	-10.8235
▁puck	-10.8238
▁tiff	-10.8243
▁doctor	-10.8243
▁orator	-10.8245
▁provide	-10.8247
▁torment	-10.8247
▁treat	-10.8248
▁bicker	-10.8253
▁moun	-10.8253
grown	-10.8255
▁furr	-10.8259
enko	-10.8259
▁burge	-10.8263
wim	-10.8265
▁maug	-10.8266
patrick	-10.8269
▁argo	-10.8279
▁abbe	-10.8281
▁indian	-10.8284
nahan	-10.8285
▁pardon	-10.8285
▁gyp	-10.8288
▁bacch	-10.8288
▁kem	-10.8289
gern	-10.8289
▁timm	-10.8292
▁greg	-10.83
uccio	-10.8303
▁ritt	-10.8309
▁peyr	-10.8311
▁faust	-10.8312
▁camel	-10.8317
▁stain	-10.8324
▁gym	-10.8328
▁ravel	-10.8334
▁merit	-10.8335
▁allow	-10.8338
▁lori	-10.8338
▁bugg	-10.8344
drake	-10.8355
▁piqu	-10.8361
▁beach	-10.8368
bride	-10.8373
▁nibb	-10.8375
▁forc	-10.8375
▁brisk	-10.8376
▁fidel	-10.8387
▁wave	-10.8396
laid	-10.84
▁vasil	-10.8401
▁promot	-10.8404
plaster	-10.8409
houl	-10.8412
▁mitch	-10.8413
▁single	-10.8416
onnais	-10.8418
▁cramp	-10.8419
▁britt	-10.842
▁remi	-10.8421
▁gemm	-10.8424
▁seb	-10.8425
wath	-10.8427
▁clerk	-10.8427
▁larg	-10.8433
▁crem	-10.8435
▁whu	-10.8436
▁pepp	-10.8443
▁noble	-10.8444
▁reap	-10.845
▁cosmo	-10.8452
▁marian	-10.8452
▁dray	-10.8452
▁fever	-10.8458
▁frisk	-10.8463
▁nutt	-10.8468
▁lutt	-10.8471
▁domina	-10.8488
▁bew	-10.849
▁briar	-10.8492
▁cobb	-10.8493
bruck	-10.8495
▁banner	-10.8501
▁rump	-10.8501
▁jerk	-10.8522
coeur	-10.8522
▁jak	-10.8532
▁olm	-10.8534
drew	-10.8534
gnac	-10.854
▁geni	-10.8548
▁weigh	-10.8552
▁pisc	-10.8563
▁garden	-10.8565
▁potter	-10.857
▁shipp	-10.8573
▁tagg	-10.858
▁nob	-10.8584
▁doz	-10.8594
fior	-10.8598
▁parti	-10.8599
▁cooper	-10.8602
▁plot	-10.8605
hinch	-10.8619
▁virgin	-10.8624
▁fag	-10.8633
▁eber	-10.8633
heb	-10.8636
▁cheve	-10.8641
▁deem	-10.8655
ragh	-10.8666
▁commin	-10.8667
▁curl	-10.8669
▁treg	-10.8671
chot	-10.8673
▁shack	-10.8673
▁reason	-10.8673
▁consul	-10.8676
▁crawl	-10.8679
selves	-10.8679
enfeld	-10.8687
▁elb	-10.8687
▁cudd	-10.8688
▁wau	-10.869
▁bub	-10.8695
▁peg	-10.8698
▁botani	-10.8708
cund	-10.8716
▁collect	-10.8717
▁natal	-10.8718
ossi	-10.8722
▁expos	-10.8728
▁spik	-10.8755
linda	-10.8765
▁flut	-10.8771
▁mc	-10.8772
▁klu	-10.8773
rouge	-10.8777
▁zur	-10.8782
▁worship	-10.8785
▁dab	-10.8793
▁crap	-10.8797
▁sank	-10.8802
▁comfort	-10.8804
▁maim	-10.8809
▁country	-10.8811
▁hedge	-10.8812
▁vicar	-10.8814
▁canal	-10.8824
▁boil	-10.8826
▁propos	-10.8829
▁went	-10.8833
▁bitt	-10.8835
▁patri	-10.8842
▁azo	-10.8844
▁assur	-10.8848
▁yok	-10.8848
▁logg	-10.8849
motive	-10.8855
▁lug	-10.8855
strand	-10.8856
▁bibb	-10.8857
▁represent	-10.886
▁legal	-10.8863
white	-10.8869
▁grou	-10.8869
▁chlor	-10.8883
▁doc	-10.8886
▁murk	-10.8902
▁montan	-10.8902
▁discover	-10.8903
▁volk	-10.8908
mpany	-10.891
▁swart	-10.8916
▁pipp	-10.8917
▁sculp	-10.8923
▁measur	-10.8924
▁discern	-10.893
▁blasphem	-10.8937
▁introduc	-10.8937
▁superintend	-10.8937
▁contribut	-10.8937
▁slaughter	-10.8937
▁condemn	-10.8937
▁inhabit	-10.8937
▁refresh	-10.8937
▁disturb	-10.8937
sensitive	-10.8937
▁proportion	-10.8937
▁entertain	-10.8937
▁assembl	-10.8938
▁legitim	-10.8938
▁swallow	-10.8938
oeuvre	-10.8938
▁reconcil	-10.8938
▁surviv	-10.8938
▁prompt	-10.8939
▁inexp	-10.8939
▁harvest	-10.894
▁unexp	-10.8941
▁betray	-10.8944
▁gossip	-10.8946
▁understand	-10.8946
▁austral	-10.8946
▁shriv	-10.895
▁howl	-10.895
▁william	-10.8951
▁swamp	-10.8951
▁refus	-10.8952
▁commit	-10.8952
▁monarch	-10.8953
▁wreck	-10.8953
▁flutter	-10.8954
▁religio	-10.8954
▁exhaust	-10.8954
▁czar	-10.8955
▁banquet	-10.8955
▁yank	-10.8956
▁agitat	-10.8957
▁bluff	-10.896
▁screw	-10.8961
▁follow	-10.8962
kerchief	-10.8963
▁stink	-10.8964
▁optim	-10.8967
▁sketch	-10.8968
▁deaf	-10.8969
▁kohl	-10.8975
▁censor	-10.8976
vah	-10.898
▁yell	-10.8982
▁pluck	-10.8982
▁attain	-10.8984
▁culver	-10.8988
▁gaunt	-10.8989
▁johann	-10.8989
▁daunt	-10.899
▁destin	-10.8996
tude	-10.8996
▁welt	-10.9
▁engel	-10.9002
▁rhine	-10.9005
▁complet	-10.901
▁narrat	-10.9015
▁wang	-10.9016
rolles	-10.9018
▁cheap	-10.9028
▁stout	-10.9029
▁awake	-10.9029
▁opin	-10.9029
▁custom	-10.903
▁bocca	-10.9034
sphere	-10.9034
▁listen	-10.9035
▁furni	-10.9036
rood	-10.9038
▁moth	-10.9039
▁donat	-10.9042
▁spend	-10.9043
▁escal	-10.9046
▁remov	-10.9052
▁scotch	-10.9054
▁cesar	-10.9054
▁brill	-10.9057
▁skinn	-10.9057
gowan	-10.9057
▁espi	-10.9063
▁pictur	-10.9064
▁tortur	-10.9069
▁ahm	-10.907
rix	-10.9071
▁stalk	-10.9075
▁spinn	-10.9077
▁hugh	-10.9077
▁shear	-10.9078
▁secur	-10.908
▁hunting	-10.9082
▁restor	-10.9091
▁wagon	-10.9094
▁fogg	-10.9096
▁skipp	-10.9097
▁gabb	-10.91
▁guff	-10.9101
education	-10.9103
▁heaven	-10.9103
▁taut	-10.9106
eggio	-10.9112
▁bragg	-10.9114
▁fenc	-10.9115
mahon	-10.9117
▁pearl	-10.9121
▁bitter	-10.9127
▁heat	-10.9129
▁passion	-10.913
▁thresh	-10.9133
▁bead	-10.9141
▁leap	-10.9145
▁pegg	-10.9154
▁dodd	-10.9158
kker	-10.9163
▁upper	-10.9166
▁happen	-10.9169
▁groom	-10.917
▁settle	-10.9171
▁david	-10.9174
▁director	-10.9176
▁dern	-10.9178
▁choc	-10.9182
▁twist	-10.9184
▁irre	-10.9185
▁realis	-10.9186
▁beef	-10.9189
▁nott	-10.9193
▁corneli	-10.9198
▁pang	-10.9203
▁artist	-10.9204
▁petit	-10.9205
▁sink	-10.9209
gregor	-10.9211
▁trent	-10.9212
▁hock	-10.9214
▁morph	-10.9214
leben	-10.9214
▁memor	-10.9221
▁hellen	-10.9224
▁tough	-10.9229
▁fow	-10.9231
▁gash	-10.9241
▁platt	-10.9243
▁mick	-10.9244
▁bask	-10.9249
lligan	-10.925
haut	-10.9252
▁hugg	-10.9253
agora	-10.9256
▁cry	-10.9263
▁shang	-10.9264
▁chapel	-10.9266
front	-10.927
martin	-10.9273
▁gush	-10.9273
▁latch	-10.9284
▁jung	-10.9285
blatt	-10.9286
feuille	-10.9287
▁cripp	-10.9289
▁celi	-10.9303
▁poult	-10.9305
▁said	-10.9319
▁phan	-10.932
▁forti	-10.9323
▁drac	-10.9323
▁tec	-10.9328
▁doom	-10.9334
▁goth	-10.9339
▁haul	-10.9345
marine	-10.9348
▁dodg	-10.9348
budge	-10.9351
▁brake	-10.9355
▁virgini	-10.9356
▁miz	-10.9357
▁tav	-10.9363
▁tout	-10.9364
leep	-10.9371
▁reach	-10.9377
▁bott	-10.9383
▁hebr	-10.9385
▁mith	-10.9386
▁travel	-10.9389
▁money	-10.939
▁mox	-10.9392
color	-10.9392
▁domini	-10.9402
labor	-10.9403
▁unti	-10.9403
▁zag	-10.941
▁stanch	-10.941
▁waist	-10.9412
minded	-10.9412
▁webb	-10.9414
▁amar	-10.9425
▁tram	-10.9429
appe	-10.9435
▁mob	-10.9436
▁dwell	-10.9438
▁gest	-10.9446
▁dusk	-10.9454
aime	-10.9457
▁knap	-10.9458
▁seiz	-10.9462
mantle	-10.9462
▁essen	-10.9472
shade	-10.9485
▁combat	-10.9485
▁moment	-10.9488
▁orf	-10.9495
▁huzza	-10.9499
flush	-10.9501
▁soup	-10.9509
▁phill	-10.9514
▁willi	-10.9532
▁organis	-10.9534
ogne	-10.954
▁dipp	-10.954
idden	-10.955
▁rout	-10.9562
▁spok	-10.9567
▁pedr	-10.9578
▁nobb	-10.9586
▁pleb	-10.9589
▁jann	-10.96
weary	-10.9618
▁splen	-10.9619
▁ead	-10.9619
quash	-10.962
▁upp	-10.9621
▁therm	-10.9627
▁roque	-10.9642
▁kaw	-10.9643
▁seek	-10.9645
issimo	-10.9648
▁yarn	-10.9652
▁kalm	-10.9669
▁dadd	-10.9676
▁ginn	-10.9688
▁tech	-10.969
▁claudi	-10.9699
▁senor	-10.9713
▁mitr	-10.9716
▁schol	-10.9725
catcher	-10.9737
▁frolic	-10.9748
▁mechanic	-10.9755
▁rann	-10.9756
▁lapp	-10.9756
▁prun	-10.9765
▁sarv	-10.9774
▁suggest	-10.9785
▁barri	-10.9785
▁disco	-10.9788
▁agne	-10.9795
machus	-10.9798
▁reflect	-10.9799
▁snip	-10.9817
champ	-10.982
▁lauri	-10.9821
▁creak	-10.9821
▁consist	-10.983
hrew	-10.9832
▁invest	-10.9835
▁dip	-10.9842
▁abstract	-10.9846
▁contemplat	-10.9846
▁neighbour	-10.9846
▁distinct	-10.9846
▁exhibit	-10.9846
▁prohibit	-10.9846
▁refract	-10.9846
▁strength	-10.9846
▁episcop	-10.9846
▁reproach	-10.9846
▁except	-10.9846
▁husband	-10.9846
▁prosecut	-10.9846
▁descend	-10.9846
▁inflam	-10.9846
▁affirm	-10.9846
▁encourag	-10.9846
▁oriental	-10.9846
▁neighbor	-10.9847
▁manifest	-10.9847
▁threaten	-10.9847
▁associat	-10.9847
approach	-10.9847
▁conspir	-10.9847
▁destroy	-10.9847
▁nymph	-10.9847
▁centaur	-10.9847
▁expedit	-10.9847
▁indulg	-10.9847
▁negoti	-10.9848
estrange	-10.9848
▁attract	-10.9848
▁cypri	-10.9848
▁parallel	-10.9848
▁scratch	-10.9848
▁convinc	-10.9848
▁snugg	-10.9849
▁olive	-10.985
▁squeak	-10.985
▁marvell	-10.985
▁maintain	-10.985
▁purchas	-10.9851
▁concern	-10.9852
▁describ	-10.9852
▁rall	-10.9853
intellectual	-10.9853
▁vapor	-10.9854
absolu	-10.9854
▁ascend	-10.9855
lief	-10.9855
▁sneak	-10.9855
▁taxi	-10.9855
▁powder	-10.9855
▁narrow	-10.9856
▁infus	-10.9856
▁journey	-10.9856
▁reveal	-10.9856
▁wrigg	-10.9857
▁accord	-10.9857
dexter	-10.9858
▁eccles	-10.9859
▁beggar	-10.9859
▁exult	-10.9859
▁widow	-10.9863
▁staple	-10.9863
▁naught	-10.9863
▁whiff	-10.9864
▁reveng	-10.9865
▁private	-10.9865
▁infect	-10.9866
▁dagg	-10.9866
▁plead	-10.9867
▁margaret	-10.9867
▁anarch	-10.9868
▁lectur	-10.9869
▁judici	-10.9869
▁extempor	-10.9869
▁renew	-10.987
▁concert	-10.9872
▁alternat	-10.9873
▁thrill	-10.9873
▁compass	-10.9873
▁minister	-10.9873
▁sultan	-10.9875
▁health	-10.9876
▁furnish	-10.9876
▁snarl	-10.9877
▁grubb	-10.9877
▁democrat	-10.9878
▁consign	-10.988
▁brief	-10.988
▁impost	-10.9883
mistress	-10.9884
bius	-10.9884
▁breech	-10.9884
▁hydra	-10.9885
▁deput	-10.9886
▁amic	-10.9887
▁stitch	-10.9887
▁escap	-10.9889
▁twitch	-10.989
emmer	-10.9891
uncle	-10.9891
▁claver	-10.9892
▁scoff	-10.9893
▁absent	-10.9893
▁fidget	-10.9893
spice	-10.9895
▁append	-10.9895
▁biograph	-10.9896
▁infinit	-10.9897
▁convent	-10.9897
agged	-10.9897
▁punt	-10.9897
▁claim	-10.99
▁bestow	-10.99
▁boast	-10.9901
▁record	-10.9901
▁pension	-10.9902
▁snap	-10.9902
▁ferrar	-10.9904
▁brood	-10.9904
▁vamp	-10.9905
▁troop	-10.9906
▁simple	-10.9908
dike	-10.991
▁tidd	-10.9911
▁bick	-10.9912
▁cheese	-10.9913
▁choos	-10.9914
▁metall	-10.9919
▁retir	-10.992
▁remain	-10.9925
▁smell	-10.9925
▁hunger	-10.9926
▁polyp	-10.9929
▁hush	-10.9929
▁geoff	-10.9935
▁soap	-10.9937
▁willow	-10.994
▁haunt	-10.9942
▁moderat	-10.9948
egre	-10.9957
soever	-10.9957
▁beast	-10.996
▁loyal	-10.9962
centric	-10.9962
▁mercur	-10.9963
yoshi	-10.9967
▁attach	-10.9968
▁tern	-10.9968
▁shag	-10.9969
▁spiel	-10.997
▁predi	-10.9972
▁reliev	-10.9974
▁cellar	-10.9974
▁scyth	-10.9976
▁albert	-10.9977
▁geb	-10.9978
▁ellen	-10.998
▁journal	-10.9986
▁solicit	-10.9987
▁shem	-10.9988
weg	-10.9989
▁crush	-10.9989
▁foster	-10.9992
rect	-10.9994
▁padr	-10.9995
▁remember	-10.9996
▁access	-10.9997
▁tamp	-11.0001
▁filip	-11.0006
▁huck	-11.0006
▁cib	-11.0014
▁defer	-11.0017
▁yearn	-11.0018
▁formula	-11.0018
▁crabb	-11.002
▁haught	-11.002
▁smol	-11.0022
▁claud	-11.0026
▁profit	-11.0027
▁mobili	-11.0029
▁plin	-11.0029
▁equip	-11.0036
azzo	-11.0038
▁manito	-11.004
▁moose	-11.0041
▁presum	-11.0042
▁carib	-11.0045
▁mantel	-11.0046
▁twinkl	-11.0049
▁stab	-11.0051
▁prison	-11.0052
▁cough	-11.0053
▁endur	-11.0053
▁lewis	-11.0056
moir	-11.0057
cynth	-11.0058
▁grenad	-11.006
▁scholar	-11.0067
▁whil	-11.0067
▁quell	-11.0071
flux	-11.0074
▁visc	-11.0075
▁mett	-11.0075
▁report	-11.0077
▁demur	-11.0079
tchka	-11.008
▁strait	-11.0083
▁aunt	-11.0095
geir	-11.0098
evsky	-11.0099
▁repell	-11.0101
▁sauce	-11.0104
▁fetch	-11.0104
lateral	-11.0105
▁tugg	-11.0109
▁loop	-11.0109
▁thib	-11.011
▁conven	-11.0116
sheet	-11.0118
bourn	-11.012
▁hash	-11.0124
jour	-11.0128
▁quinc	-11.013
▁lisp	-11.0145
▁gwa	-11.0148
▁mugg	-11.0152
▁imbr	-11.0154
▁pew	-11.0159
▁juan	-11.016
eddie	-11.016
yevna	-11.0161
▁thermo	-11.0161
▁gap	-11.0166
▁tem	-11.017
▁acqui	-11.0172
▁plank	-11.0173
kaya	-11.0179
▁cerv	-11.0183
▁bring	-11.0189
▁khu	-11.0192
▁castr	-11.0192
▁hallow	-11.0194
▁tamar	-11.0195
▁chron	-11.02
▁morti	-11.02
▁decim	-11.0201
▁medicin	-11.0202
▁temple	-11.0205
▁connect	-11.0206
elda	-11.0209
▁booth	-11.0214
servant	-11.0215
▁jup	-11.022
▁garb	-11.0225
▁babi	-11.0227
▁sthr	-11.0229
▁gerv	-11.0229
▁plump	-11.0231
▁uri	-11.0231
▁behold	-11.0231
▁binn	-11.0233
▁jum	-11.0241
▁brenn	-11.0244
▁augustin	-11.0252
▁kneel	-11.0257
▁clapp	-11.0258
▁nach	-11.026
▁gim	-11.0262
dahl	-11.027
nominat	-11.0271
▁recit	-11.0274
▁adulter	-11.0281
▁karn	-11.0282
▁gurg	-11.0283
▁tomm	-11.0289
▁guess	-11.029
▁bimb	-11.0297
haugh	-11.0303
▁react	-11.0308
▁crew	-11.0311
▁teg	-11.0322
ennial	-11.0328
moto	-11.0336
▁vell	-11.0336
▁auber	-11.0338
▁team	-11.0345
▁nail	-11.0345
atrice	-11.0355
▁momm	-11.0357
▁broc	-11.0358
▁loqu	-11.0366
▁distr	-11.0369
▁jest	-11.0375
owitz	-11.0377
▁holland	-11.0383
▁fili	-11.0385
▁gallop	-11.04
▁stam	-11.0401
▁boll	-11.0411
▁torch	-11.0413
▁palat	-11.0424
enclos	-11.0424
▁shew	-11.0436
▁fabi	-11.044
▁gov	-11.0441
▁clark	-11.0443
▁florid	-11.0497
mitten	-11.0506
utu	-11.0506
ptera	-11.051
flor	-11.0532
▁biz	-11.0534
▁baptis	-11.054
▁tusc	-11.055
▁fonte	-11.0554
flax	-11.0555
▁companion	-11.0562
▁formal	-11.0563
▁barrac	-11.0568
bonne	-11.0568
hyr	-11.0571
▁corte	-11.059
gambi	-11.0603
anthus	-11.0609
tania	-11.061
▁warren	-11.0614
▁tyran	-11.0627
▁samm	-11.0637
▁jink	-11.0641
▁jovi	-11.066
donnell	-11.0676
agra	-11.0679
▁imag	-11.0707
▁reich	-11.0708
hatch	-11.0713
gunda	-11.0714
▁odor	-11.0725
▁blithe	-11.0739
▁jenne	-11.0747
▁rabi	-11.0752
▁transit	-11.0753
connell	-11.0763
▁mesh	-11.0768
▁stair	-11.0768
▁mitchel	-11.0773
issima	-11.0798
roux	-11.0799
▁diplomat	-11.0803
▁marj	-11.0812
▁dimm	-11.0818
▁gorm	-11.0828
ologu	-11.0831
evolution	-11.0843
▁theodor	-11.0843
avai	-11.0845
▁transcend	-11.0846
▁acknowledg	-11.0846
▁embroider	-11.0846
▁disillusion	-11.0846
▁soliloqui	-11.0846
▁explain	-11.0846
▁bewilder	-11.0846
▁instrument	-11.0846
▁function	-11.0846
▁interrupt	-11.0846
▁phantasm	-11.0846
▁pronounc	-11.0846
structure	-11.0846
▁schwartz	-11.0846
▁persecut	-11.0846
▁pharmac	-11.0846
▁shepherd	-11.0846
▁concentrat	-11.0846
▁hypocr	-11.0847
▁proselyt	-11.0847
▁recruit	-11.0847
▁hypothe	-11.0847
▁penitent	-11.0847
▁sulphur	-11.0847
▁inherit	-11.0847
▁debauch	-11.0847
▁serpent	-11.0847
▁emotion	-11.0847
▁wrapp	-11.0847
▁frizz	-11.0847
▁astonish	-11.0847
decipher	-11.0847
▁restrain	-11.0847
▁yield	-11.0848
▁occult	-11.0848
▁achiev	-11.0848
similar	-11.0848
▁exorci	-11.0848
▁perfum	-11.0849
▁incub	-11.0849
▁inclin	-11.0849
▁soldier	-11.085
▁burglar	-11.085
▁usurp	-11.085
▁hymn	-11.085
▁pistol	-11.085
▁transform	-11.085
▁slugg	-11.085
▁scream	-11.085
▁deceiv	-11.085
▁flirt	-11.0851
▁gnaw	-11.0851
▁stefan	-11.0851
▁abbot	-11.0851
israeli	-11.0851
moiselle	-11.0851
▁regular	-11.0851
▁external	-11.0851
▁drunk	-11.0851
continent	-11.0852
▁voyage	-11.0852
▁alarm	-11.0852
▁dionys	-11.0852
▁narcis	-11.0852
▁stammer	-11.0853
▁redeem	-11.0853
▁enquir	-11.0853
▁despair	-11.0853
▁credit	-11.0853
▁whistle	-11.0853
▁splash	-11.0853
▁nectar	-11.0854
▁wreath	-11.0854
▁kitchen	-11.0854
▁melli	-11.0855
▁registr	-11.0855
▁approv	-11.0855
▁spider	-11.0855
ocles	-11.0856
▁perplex	-11.0856
▁flood	-11.0856
▁despond	-11.0856
▁repuls	-11.0857
▁london	-11.0857
▁deserv	-11.0858
▁annoy	-11.0859
▁depress	-11.0859
▁musket	-11.0859
▁distress	-11.086
▁energ	-11.086
▁ultim	-11.086
▁zepp	-11.086
▁stult	-11.086
▁tumble	-11.0861
▁automat	-11.0861
▁certain	-11.0861
▁photograph	-11.0862
▁pencil	-11.0862
▁flunk	-11.0863
▁syndic	-11.0863
rector	-11.0864
▁dread	-11.0864
▁freight	-11.0866
▁prank	-11.0866
▁ultra	-11.0867
▁blunt	-11.0867
▁fizz	-11.0867
▁appear	-11.0868
▁ministr	-11.0868
▁drows	-11.0868
▁telephon	-11.0869
▁captain	-11.0871
▁stagger	-11.0873
▁concord	-11.0873
▁repress	-11.0874
▁prigg	-11.0874
▁fluff	-11.0877
▁bluster	-11.0877
▁tromp	-11.0878
▁wray	-11.088
▁rhyme	-11.088
▁hetero	-11.0883
leave	-11.0883
▁spong	-11.0884
knife	-11.0886
▁burrow	-11.0887
▁susan	-11.0887
▁reduc	-11.0888
▁cruci	-11.0889
▁pleasant	-11.089
▁convert	-11.089
▁loaf	-11.0891
▁drill	-11.0891
▁regulat	-11.0894
▁translat	-11.0895
▁engag	-11.0895
▁platon	-11.0898
▁travers	-11.0899
▁leonard	-11.09
▁vouch	-11.0901
▁kaiser	-11.0903
▁gustav	-11.0904
▁prophet	-11.0905
▁artem	-11.0906
martial	-11.0907
▁gloom	-11.0908
▁ravish	-11.0909
▁window	-11.091
▁prowl	-11.091
▁guadal	-11.0912
▁dispers	-11.0916
▁click	-11.092
▁gleam	-11.0921
▁cancel	-11.0923
▁digest	-11.0923
▁flock	-11.0924
▁trevi	-11.0925
▁repair	-11.093
rotund	-11.0931
▁maund	-11.0933
▁assert	-11.0935
▁vision	-11.0935
▁summari	-11.0937
▁devour	-11.0938
▁serra	-11.094
▁romantic	-11.094
▁reckon	-11.0941
▁hender	-11.0942
▁crick	-11.0944
pendent	-11.0944
▁yester	-11.0944
▁bracken	-11.0945
▁thyr	-11.0945
▁fledg	-11.0945
▁insist	-11.0945
▁mellow	-11.0946
▁savage	-11.0946
▁saxon	-11.0946
▁thirst	-11.0952
▁renova	-11.0953
▁atom	-11.0953
▁coarse	-11.0953
▁demand	-11.0959
▁clover	-11.0959
▁adorn	-11.0959
▁muzz	-11.0963
▁ginger	-11.0963
section	-11.0964
▁trend	-11.0966
▁placid	-11.097
▁scab	-11.097
▁scorch	-11.097
brick	-11.0976
▁parm	-11.0978
▁huff	-11.0978
▁matur	-11.0979
psycholog	-11.0983
▁liberal	-11.0985
▁despis	-11.0997
▁purpl	-11.0999
culus	-11.1001
▁gloria	-11.1001
▁rumm	-11.1004
▁fortunat	-11.1005
▁clavi	-11.1006
▁offend	-11.1006
▁droll	-11.1008
▁persi	-11.1014
▁spindl	-11.1016
▁halb	-11.102
▁grape	-11.103
▁racket	-11.103
▁rebell	-11.103
hanna	-11.1034
▁luff	-11.1036
▁behav	-11.1043
▁flour	-11.1043
▁sift	-11.1044
▁humbl	-11.1047
▁mistak	-11.1048
▁gambl	-11.1055
▁which	-11.1057
▁starv	-11.1061
▁soak	-11.1067
▁center	-11.1075
▁chevr	-11.1077
culum	-11.108
▁shout	-11.1092
▁myth	-11.1094
▁flapp	-11.1096
▁sophist	-11.1101
wyll	-11.1109
▁deriv	-11.111
▁chronic	-11.1113
▁mizz	-11.1118
▁eben	-11.1123
▁rattle	-11.113
schau	-11.114
▁slide	-11.1142
▁percept	-11.1151
▁gown	-11.1152
▁crab	-11.1157
▁assist	-11.1158
▁stal	-11.1159
space	-11.1164
gift	-11.117
▁bounc	-11.1172
▁nair	-11.1173
▁snar	-11.1175
▁clew	-11.1176
▁mogg	-11.118
▁gregori	-11.1192
▁otter	-11.1196
lito	-11.1198
▁franz	-11.12
odorus	-11.1202
▁photo	-11.1202
▁castell	-11.1213
haka	-11.1217
▁villan	-11.1219
▁claw	-11.122
green	-11.1225
▁crank	-11.1229
▁mickle	-11.1232
▁hutt	-11.1242
▁womb	-11.1244
baw	-11.1251
▁pulp	-11.1261
▁viti	-11.1269
▁calend	-11.127
▁advert	-11.1278
▁cling	-11.1287
▁graft	-11.1294
▁corona	-11.1298
▁bryan	-11.1299
▁absorb	-11.13
ipu	-11.1302
▁garrot	-11.1302
alloway	-11.1304
▁samb	-11.131
▁theodo	-11.1318
▁ogle	-11.1329
▁merv	-11.134
▁appare	-11.1346
▁neuro	-11.1346
▁mahar	-11.1349
▁chisel	-11.1349
mitting	-11.1353
▁natch	-11.1355
▁quarrel	-11.1367
▁kerr	-11.1378
▁surpr	-11.1383
trem	-11.1392
▁principal	-11.14
▁fist	-11.1405
barrow	-11.1408
▁cattle	-11.1418
▁erect	-11.1426
▁echo	-11.1427
rrett	-11.1432
▁chew	-11.144
▁web	-11.1444
▁noir	-11.1453
▁tubb	-11.1454
▁theat	-11.148
▁tusk	-11.1486
▁gaul	-11.1491
▁gramp	-11.1494
▁couch	-11.1494
▁leib	-11.1497
▁mapp	-11.1503
▁magnific	-11.1513
▁sylva	-11.1514
▁fawn	-11.1519
▁lesc	-11.1522
▁jabb	-11.1523
wyl	-11.1536
▁defil	-11.1545
▁conch	-11.1549
garee	-11.1559
guana	-11.1562
▁dominic	-11.1579
value	-11.1583
▁electric	-11.1586
▁hub	-11.1607
hubert	-11.162
▁kosh	-11.1633
▁risk	-11.1666
uzzi	-11.1681
▁saha	-11.1683
▁sunni	-11.1697
▁odo	-11.1699
▁idealis	-11.1705
watch	-11.1719
▁panch	-11.1722
▁culm	-11.1723
▁bux	-11.1751
▁educat	-11.1756
▁strike	-11.1758
▁ridg	-11.176
▁impass	-11.1761
▁brach	-11.1761
▁bho	-11.1763
▁rememb	-11.1777
▁compress	-11.1779
▁voul	-11.1801
▁apol	-11.1805
▁neutral	-11.1808
sylvania	-11.182
▁jinn	-11.1828
▁nasi	-11.1829
▁integr	-11.1833
▁ocean	-11.1842
▁pesc	-11.1858
▁grec	-11.1861
▁ungr	-11.1869
▁lagg	-11.1873
▁wilke	-11.1883
▁dissent	-11.1888
▁conventional	-11.1892
▁jogg	-11.1894
▁crash	-11.1911
▁cultiva	-11.1913
scrip	-11.1918
▁administra	-11.193
▁ceph	-11.1932
▁shul	-11.1938
▁discrimina	-11.1943
dgett	-11.1943
▁capell	-11.1945
▁constitut	-11.1956
▁elizabeth	-11.1957
▁destruct	-11.1957
▁exploit	-11.1957
▁vagabond	-11.1957
▁philanthrop	-11.1957
▁somnambul	-11.1957
▁depreciat	-11.1957
▁publish	-11.1957
▁californi	-11.1957
▁opportun	-11.1957
▁authentic	-11.1957
▁accumulat	-11.1957
▁glitter	-11.1957
▁practis	-11.1957
▁presbyter	-11.1957
▁puzzle	-11.1957
▁disappoint	-11.1957
▁disrupt	-11.1957
▁frequent	-11.1957
▁jeopard	-11.1957
▁admonish	-11.1958
▁manipulat	-11.1958
▁victual	-11.1958
bjorn	-11.1958
▁constrain	-11.1958
▁deprecat	-11.1958
▁innocent	-11.1958
▁draught	-11.1958
▁confirm	-11.1958
▁increa	-11.1958
▁assassin	-11.1958
▁insinuat	-11.1958
▁oscill	-11.1958
▁deliberat	-11.1958
▁persuad	-11.1958
▁anathema	-11.1958
▁announc	-11.1958
▁retract	-11.1958
▁languish	-11.1958
▁suprem	-11.1958
▁quizz	-11.1958
▁sacrament	-11.1958
▁aposta	-11.1958
▁flicker	-11.1958
▁shriek	-11.1958
▁hibern	-11.1958
▁stomach	-11.1958
▁koenig	-11.1958
▁sustain	-11.1958
▁exhort	-11.1958
▁rehear	-11.1959
▁positiv	-11.1959
▁pedagog	-11.1959
▁squatt	-11.1959
▁antagonis	-11.1959
▁faithful	-11.1959
▁diabol	-11.1959
▁plunk	-11.1959
▁perceiv	-11.196
▁prevail	-11.196
locution	-11.196
▁perambulat	-11.196
▁trump	-11.196
▁orphan	-11.196
intosh	-11.1961
▁snobb	-11.1961
▁wrist	-11.1961
▁commenc	-11.1961
▁snivel	-11.1961
▁octavi	-11.1961
▁scuff	-11.1961
▁gabriel	-11.1961
▁beguil	-11.1961
▁launch	-11.1962
▁thrift	-11.1962
▁chaperon	-11.1962
familia	-11.1962
▁snoop	-11.1963
▁declin	-11.1963
▁punct	-11.1964
▁snatch	-11.1964
▁supervis	-11.1965
▁christmas	-11.1965
▁harbour	-11.1965
▁implor	-11.1965
▁isaac	-11.1966
▁requir	-11.1966
▁conceiv	-11.1966
▁pelagi	-11.1967
stetten	-11.1967
▁shudder	-11.1968
few	-11.1968
▁subdu	-11.1969
▁conceal	-11.1969
▁support	-11.1969
▁survey	-11.1969
thwart	-11.197
angular	-11.197
▁shann	-11.197
▁circulat	-11.1971
scholastic	-11.1971
▁extort	-11.1972
▁jolly	-11.1972
▁apprais	-11.1972
▁cardinal	-11.1972
▁obtain	-11.1973
▁mineral	-11.1973
▁butcher	-11.1974
▁relent	-11.1974
▁slash	-11.1975
▁transfer	-11.1975
▁appoint	-11.1975
▁concret	-11.1975
▁naturalis	-11.1976
spicious	-11.1976
▁yacht	-11.1977
▁transport	-11.1977
▁recover	-11.1977
▁mignon	-11.1977
▁loiter	-11.1977
▁nourish	-11.1978
▁lobb	-11.1978
▁magistr	-11.1978
▁proceed	-11.1979
▁contain	-11.1979
▁collar	-11.1981
▁imperial	-11.1982
▁brahman	-11.1982
▁retain	-11.1982
▁attack	-11.1982
▁reject	-11.1983
▁exalt	-11.1984
▁shield	-11.1984
▁southern	-11.1984
▁fuzz	-11.1986
▁gruff	-11.1986
▁christoph	-11.1987
▁arbor	-11.1988
▁cedar	-11.1989
▁assail	-11.1989
▁victim	-11.199
▁convey	-11.199
▁stupid	-11.1992
▁defect	-11.1992
▁trumpet	-11.1993
▁professor	-11.1994
▁tailor	-11.1994
▁nazar	-11.1996
▁droop	-11.1996
cloak	-11.1997
children	-11.1999
▁wobbl	-11.2003
▁jaunt	-11.2003
▁avow	-11.2003
▁condens	-11.2003
▁bombard	-11.2004
▁divert	-11.2006
▁further	-11.2006
▁carmel	-11.2007
▁zamb	-11.2007
▁monkey	-11.2012
▁blight	-11.2013
▁calder	-11.2017
▁pillow	-11.2017
▁despot	-11.2018
▁export	-11.2018
▁vivisect	-11.2019
struck	-11.2019
▁roost	-11.2019
▁jolt	-11.2021
▁spout	-11.2023
▁murther	-11.2023
▁warrant	-11.2025
▁blast	-11.2025
▁advanc	-11.2026
hahn	-11.2026
▁trigg	-11.2027
▁lynch	-11.2029
▁stoop	-11.2029
▁universal	-11.203
▁glauc	-11.203
▁parch	-11.2033
▁cultur	-11.2033
stratus	-11.2033
▁dimpl	-11.2034
▁classic	-11.2034
▁armour	-11.2035
▁stroll	-11.2035
▁shuck	-11.2037
curry	-11.2037
▁blather	-11.2038
botham	-11.2043
▁travail	-11.2044
▁agree	-11.2048
tomo	-11.205
▁clasp	-11.2051
▁loung	-11.2054
▁impart	-11.2054
▁feast	-11.2054
ncz	-11.2054
▁preston	-11.2057
▁vrai	-11.2059
▁skew	-11.2059
▁lambert	-11.2061
▁persist	-11.2064
▁thrash	-11.2067
breaker	-11.2068
▁licht	-11.2069
▁cousin	-11.2073
▁trinit	-11.2073
▁summon	-11.2076
▁swimm	-11.208
▁gallant	-11.208
neath	-11.208
▁mutter	-11.2081
▁wolver	-11.2081
▁civilis	-11.2082
▁mair	-11.2084
▁neva	-11.2085
▁arrest	-11.2085
▁bohem	-11.2085
▁jibb	-11.2086
▁dragg	-11.2086
▁taunt	-11.2091
▁drain	-11.2092
▁daniel	-11.2099
▁blubb	-11.2101
▁optic	-11.2104
▁paragraph	-11.2108
▁issu	-11.211
▁dragon	-11.2113
▁levant	-11.2114
▁crouch	-11.2115
▁aureli	-11.2117
▁quaint	-11.2117
▁bawl	-11.2118
▁drab	-11.212
▁resent	-11.2121
▁patti	-11.2122
▁moult	-11.2124
▁basil	-11.2126
▁croak	-11.2127
▁froth	-11.2127
▁castellan	-11.2131
▁serap	-11.2132
▁debat	-11.2133
▁phoc	-11.2136
▁meddle	-11.2137
▁whore	-11.2141
▁rhodo	-11.2141
▁emili	-11.2141
▁slab	-11.2144
▁radiat	-11.2144
▁motion	-11.2145
▁lech	-11.215
▁ruck	-11.2156
▁film	-11.2165
▁quilt	-11.2173
▁sneer	-11.2182
▁thatch	-11.2186
▁gallic	-11.2192
▁becom	-11.2192
stairs	-11.2193
▁compact	-11.2196
▁gell	-11.2196
mmock	-11.2197
▁chirp	-11.2199
▁arriv	-11.22
▁booz	-11.2203
▁adjust	-11.2208
▁teaz	-11.2214
▁cleve	-11.2216
▁lugg	-11.2221
▁grasp	-11.2226
▁cheat	-11.2228
▁controll	-11.2237
▁silenc	-11.2237
▁counsell	-11.224
▁gome	-11.2242
horst	-11.2249
▁recu	-11.2253
▁wynd	-11.2256
▁ugli	-11.2256
▁scrapp	-11.2265
▁saul	-11.2265
▁jingl	-11.2268
▁their	-11.227
▁torqu	-11.2276
▁compose	-11.2276
▁rast	-11.2279
▁chr	-11.2281
▁brib	-11.2283
jardin	-11.2291
▁shamm	-11.2305
▁sherri	-11.2305
▁hiv	-11.2306
▁perdu	-11.2311
baptist	-11.2313
▁somethin	-11.2313
▁plagu	-11.232
▁gripp	-11.2322
vanne	-11.2325
▁guv	-11.233
▁gaspar	-11.2344
▁group	-11.2353
holtz	-11.2366
▁brett	-11.237
▁clang	-11.2376
▁bosom	-11.2383
keeping	-11.2393
▁shedd	-11.2396
▁correspond	-11.2398
▁felicita	-11.2398
▁punk	-11.2399
czy	-11.2409
▁pawn	-11.241
dorp	-11.2411
▁cropp	-11.2414
▁model	-11.2418
▁spil	-11.2433
▁kib	-11.2438
stroke	-11.2449
ceptive	-11.2451
▁mouch	-11.2455
▁spectr	-11.2459
▁conduc	-11.2468
▁hemp	-11.2471
▁kava	-11.2473
perfect	-11.2475
▁valeri	-11.2479
▁tutor	-11.2479
subtle	-11.2481
emancipat	-11.2481
▁cyth	-11.2481
▁bronz	-11.249
▁stall	-11.2491
▁dron	-11.2494
▁handsom	-11.2495
▁neph	-11.2499
venti	-11.2512
▁ricar	-11.2526
▁chopp	-11.2533
▁roug	-11.2534
wulf	-11.2538
▁myl	-11.2541
▁serb	-11.2545
▁andri	-11.2546
▁lunch	-11.2547
▁annu	-11.2551
▁arden	-11.256
▁jagg	-11.2578
guire	-11.2578
grange	-11.2581
▁bouill	-11.2582
▁hudd	-11.2587
▁clun	-11.2594
▁virg	-11.2602
dresser	-11.2621
rivet	-11.2638
mmick	-11.2649
▁sibil	-11.2651
▁composit	-11.2656
▁bonni	-11.2702
frock	-11.2704
advertise	-11.2713
▁casca	-11.272
▁wurr	-11.2721
▁nitr	-11.2722
▁empti	-11.2725
hrab	-11.2732
▁vri	-11.2743
▁republic	-11.275
▁leonti	-11.276
▁nash	-11.2767
▁syl	-11.2768
▁tush	-11.2779
▁travell	-11.2784
▁brigg	-11.2793
▁romp	-11.2799
▁sorb	-11.2799
▁symbolis	-11.2806
▁hiero	-11.2819
▁starr	-11.2824
ngwe	-11.2827
dougal	-11.2835
▁plumb	-11.2837
▁kham	-11.2844
▁kerb	-11.2849
▁specialis	-11.2861
▁tumm	-11.2864
▁pemb	-11.2873
ynx	-11.2876
▁counsel	-11.2897
vaca	-11.2908
toga	-11.2912
▁taj	-11.2913
▁nanc	-11.2924
▁poop	-11.2929
comte	-11.294
osoph	-11.2959
▁gask	-11.2963
▁gwin	-11.2966
▁contrari	-11.297
thenes	-11.2983
▁musca	-11.2991
▁fah	-11.2997
▁puddle	-11.3006
▁laurel	-11.3009
▁honour	-11.3013
thrust	-11.3019
▁gair	-11.3029
▁napp	-11.3041
▁cobble	-11.3069
▁chatel	-11.308
riety	-11.3083
▁journ	-11.3084
rocco	-11.3112
▁irish	-11.3122
▁skip	-11.3125
▁femin	-11.3141
▁candid	-11.3152
▁spurr	-11.3161
▁differentia	-11.3163
▁syllab	-11.3178
statement	-11.319
▁disapp	-11.3207
pherson	-11.3207
prehensive	-11.3207
▁extinguish	-11.3207
▁skirmish	-11.3207
reconstruct	-11.3207
▁approximat	-11.3207
▁arithmetic	-11.3207
▁disconcert	-11.3207
▁distinguish	-11.3207
▁industrial	-11.3207
▁inflict	-11.3207
▁substitut	-11.3207
▁upholster	-11.3207
▁appropriat	-11.3207
▁attribut	-11.3207
▁mathematic	-11.3207
▁recommend	-11.3207
▁celebrat	-11.3207
▁encroach	-11.3207
▁excavat	-11.3207
▁prevaricat	-11.3207
▁inhibit	-11.3207
▁panegyri	-11.3207
▁scintilla	-11.3207
▁afflict	-11.3207
▁subordinat	-11.3207
▁uplift	-11.3207
▁constantin	-11.3207
▁glimmer	-11.3207
▁proclaim	-11.3207
▁misanthrop	-11.3207
ascertain	-11.3207
▁transgress	-11.3207
occupation	-11.3207
▁fluctu	-11.3207
▁sojourn	-11.3207
▁fulfill	-11.3207
▁anticipat	-11.3207
▁repudiat	-11.3207
▁envelop	-11.3208
▁lombard	-11.3208
▁surround	-11.3208
▁vaccin	-11.3208
▁vanquish	-11.3208
▁orchestr	-11.3208
▁pyramid	-11.3208
▁vertebra	-11.3208
▁articulat	-11.3208
▁auction	-11.3208
▁grizzl	-11.3208
▁swagger	-11.3208
▁infirm	-11.3208
▁occasion	-11.3208
▁engross	-11.3208
▁ancient	-11.3208
▁betroth	-11.3208
▁disgust	-11.3208
▁tradition	-11.3208
▁backslid	-11.3208
▁detract	-11.3208
▁intrigu	-11.3208
▁microscop	-11.3208
▁rationalis	-11.3208
▁collaborat	-11.3208
▁accustom	-11.3208
▁deduct	-11.3208
▁quixot	-11.3208
▁ridicul	-11.3208
▁hundred	-11.3208
▁reminisc	-11.3208
▁babylon	-11.3208
▁ornament	-11.3208
▁originat	-11.3208
▁vapour	-11.3208
▁deprav	-11.3208
▁despoil	-11.3208
▁unravel	-11.3208
▁augment	-11.3208
▁disgrac	-11.3208
▁retriev	-11.3208
▁ludovic	-11.3208
▁disorder	-11.3208
▁scrubb	-11.3208
▁condition	-11.3208
▁bumble	-11.3208
▁enslav	-11.3208
▁neglig	-11.3208
▁screech	-11.3208
▁service	-11.3209
▁concoct	-11.3209
▁stutter	-11.3209
▁desecrat	-11.3209
▁demetri	-11.3209
▁disquiet	-11.3209
▁cavalier	-11.3209
▁insect	-11.3209
▁commut	-11.3209
▁abandon	-11.3209
▁drugg	-11.3209
▁jesuit	-11.3209
▁clatter	-11.321
▁revolt	-11.321
▁rhetoric	-11.321
▁bargain	-11.321
▁dismiss	-11.321
▁missouri	-11.321
▁pilgrim	-11.321
▁italic	-11.321
▁idiot	-11.321
▁twenty	-11.321
▁dramatis	-11.321
▁squeez	-11.321
▁enumerat	-11.321
▁italian	-11.3211
▁magdalen	-11.3211
▁regenerat	-11.3211
▁puritan	-11.3211
▁outfit	-11.3211
▁disdain	-11.3211
▁licens	-11.3211
▁sclav	-11.3212
theatrical	-11.3212
▁expir	-11.3212
▁teuton	-11.3212
▁catholic	-11.3212
▁resign	-11.3212
▁chastis	-11.3212
schaft	-11.3212
▁embalm	-11.3212
▁shrill	-11.3212
▁african	-11.3212
▁perjur	-11.3213
▁instigat	-11.3213
▁empiric	-11.3213
▁defam	-11.3213
mesnil	-11.3213
▁disinter	-11.3213
▁superior	-11.3213
▁ambrosi	-11.3213
▁samuel	-11.3213
▁quench	-11.3214
▁lithograph	-11.3214
▁astrolog	-11.3214
▁dialect	-11.3214
▁interject	-11.3214
▁embark	-11.3214
▁societ	-11.3214
▁khalif	-11.3214
▁endear	-11.3215
▁persever	-11.3215
▁plunder	-11.3215
▁sprawl	-11.3215
▁sneez	-11.3215
▁discuss	-11.3215
▁distort	-11.3216
▁trunk	-11.3216
▁jubila	-11.3216
▁homestead	-11.3216
▁column	-11.3216
▁douglas	-11.3216
▁curtain	-11.3217
▁result	-11.3217
▁twirl	-11.3217
▁stanisla	-11.3217
sapient	-11.3217
▁caravan	-11.3217
▁pigeon	-11.3217
▁innovat	-11.3218
▁satyr	-11.3218
▁individualis	-11.3218
▁ordain	-11.3219
▁consummat	-11.3219
▁smack	-11.3219
▁encamp	-11.3219
▁philander	-11.3219
▁creatur	-11.3219
▁disarm	-11.322
▁harpoon	-11.322
▁plural	-11.322
▁enforce	-11.322
▁complic	-11.322
▁shabb	-11.322
▁detach	-11.322
▁chimney	-11.322
▁isidor	-11.322
▁marshall	-11.322
▁analog	-11.3221
▁squall	-11.3221
▁reprov	-11.3222
▁gerald	-11.3222
villiers	-11.3222
stephen	-11.3223
▁flourish	-11.3223
▁sleek	-11.3224
▁scourg	-11.3224
▁gravitat	-11.3224
▁robust	-11.3224
▁essay	-11.3225
▁britann	-11.3225
▁inject	-11.3225
▁shallow	-11.3225
▁herald	-11.3225
▁overlook	-11.3226
▁palladi	-11.3226
▁detain	-11.3227
▁thessal	-11.3227
▁ouvr	-11.3228
▁elim	-11.3228
▁schwein	-11.3228
▁climat	-11.3228
▁scowl	-11.3229
▁frond	-11.3231
▁argument	-11.3231
▁flight	-11.3232
▁isabel	-11.3233
▁install	-11.3234
▁acro	-11.3234
▁regiment	-11.3234
▁wagner	-11.3235
▁bewitch	-11.3235
▁squeal	-11.3237
▁sunny	-11.3239
▁islam	-11.3239
▁praetor	-11.3239
▁buoy	-11.324
▁contort	-11.324
▁assay	-11.3241
▁patriot	-11.3242
▁portray	-11.3242
▁itiner	-11.3242
▁league	-11.3244
▁enrich	-11.3244
▁thump	-11.3244
▁normal	-11.3245
▁detest	-11.3245
▁provok	-11.3245
▁smear	-11.3249
▁gilbert	-11.3249
▁delegat	-11.3252
▁whack	-11.3252
▁sheath	-11.3255
▁cricket	-11.3256
▁musquet	-11.3257
▁petition	-11.3258
▁reign	-11.326
▁remedi	-11.3261
▁welsh	-11.3261
▁freud	-11.3261
▁tobacc	-11.3263
▁vincent	-11.3263
foyle	-11.3264
▁snort	-11.3264
▁avail	-11.3265
▁wharf	-11.3265
▁jumbl	-11.3266
▁deform	-11.3267
▁dairy	-11.3267
▁greif	-11.3267
▁squab	-11.3267
▁corral	-11.3268
▁eject	-11.3268
▁repeat	-11.3269
dermot	-11.3272
▁emulat	-11.3274
▁savour	-11.3274
▁frett	-11.3276
▁coiff	-11.3278
▁chief	-11.3279
ignol	-11.3279
▁nathan	-11.3281
▁bleach	-11.3282
▁blush	-11.3282
▁vassili	-11.3284
▁quaker	-11.3285
▁whoop	-11.3286
▁carmin	-11.3288
▁fernand	-11.3288
▁abyss	-11.3292
▁streak	-11.3293
▁spiritualis	-11.3294
▁newcome	-11.3295
▁arrang	-11.3296
▁jenkin	-11.3297
▁grinn	-11.3299
▁maiden	-11.33
▁forward	-11.33
fergus	-11.3301
▁adher	-11.3302
▁mumbl	-11.3302
▁freak	-11.3305
▁lough	-11.3315
▁extract	-11.3315
▁connot	-11.3319
▁sedge	-11.332
▁gravel	-11.3321
viii	-11.3321
▁cleave	-11.3324
▁fring	-11.3325
byrn	-11.3329
aggio	-11.3331
▁bourbon	-11.3332
▁pimp	-11.3334
▁guaran	-11.3335
gosh	-11.3336
▁toast	-11.334
▁snipp	-11.3347
▁tiger	-11.3349
▁disintegrat	-11.335
▁bij	-11.3355
▁element	-11.336
▁vague	-11.3363
▁limit	-11.337
▁grouch	-11.3381
▁mytholog	-11.339
▁rhode	-11.3392
▁parrot	-11.34
▁hw	-11.3403
▁clever	-11.3404
▁lush	-11.3407
▁mystic	-11.3409
▁vedi	-11.3414
▁ransom	-11.3419
▁roast	-11.3419
▁molli	-11.342
alpine	-11.3426
▁rapid	-11.3427
▁wilkin	-11.3432
▁levell	-11.3438
▁cocc	-11.3444
kammer	-11.3445
▁remind	-11.345
▁barnab	-11.3452
▁drumm	-11.3454
▁scath	-11.3462
▁jill	-11.3462
▁worshipp	-11.3474
▁divide	-11.3475
register	-11.3497
▁chund	-11.3502
▁clipp	-11.3507
taub	-11.3507
blade	-11.3516
▁jib	-11.3517
▁dropp	-11.3521
▁acquir	-11.3526
torium	-11.3528
vril	-11.3537
dealer	-11.3564
▁patte	-11.3566
ynge	-11.3566
rouble	-11.358
uillet	-11.3584
▁golf	-11.3585
aigre	-11.3585
▁algi	-11.3586
▁alexi	-11.3587
pittle	-11.3591
▁praise	-11.3595
▁wynn	-11.3601
▁angi	-11.361
▁bosc	-11.3616
▁harsh	-11.3617
▁gwinn	-11.362
▁mosco	-11.3632
▁lumb	-11.3639
chamber	-11.3654
▁hoog	-11.3661
▁turqu	-11.3663
▁dissect	-11.3684
hyde	-11.3699
▁cyan	-11.3713
kirch	-11.3715
blood	-11.3715
ladies	-11.3718
▁nutri	-11.372
▁legat	-11.3736
▁quig	-11.3741
▁longue	-11.3754
▁nobili	-11.3756
▁olympia	-11.3757
hearn	-11.3763
wearied	-11.3771
▁quesn	-11.3773
▁bulb	-11.3783
▁wiggl	-11.3784
▁revell	-11.3796
shackle	-11.3809
▁dibb	-11.3809
▁chauve	-11.3811
▁forecast	-11.3827
brink	-11.383
▁replac	-11.3842
▁wring	-11.3856
▁joint	-11.3858
▁disciplin	-11.3865
▁ulric	-11.3887
puti	-11.3903
lverton	-11.3905
▁hielan	-11.3913
gird	-11.392
▁fagg	-11.3923
▁beautifu	-11.3956
▁euro	-11.3962
addresse	-11.3967
▁reproduc	-11.3971
mayne	-11.3985
▁sanita	-11.3991
▁libb	-11.3992
mayor	-11.3995
▁temb	-11.4003
▁spiritu	-11.4011
muller	-11.4024
▁cask	-11.4044
orrigan	-11.4055
▁ensu	-11.4093
▁vla	-11.4096
▁nihil	-11.4103
▁nazi	-11.414
▁carcas	-11.4158
▁eisen	-11.4159
▁camera	-11.4169
▁glorie	-11.4214
▁pride	-11.4232
kiyo	-11.424
busch	-11.428
▁sunda	-11.4285
▁camill	-11.4296
▁annul	-11.433
split	-11.4334
▁pacifi	-11.4356
▁dubb	-11.4369
▁stimulat	-11.439
▁disappear	-11.4402
▁superb	-11.4407
▁hodge	-11.4421
buddhi	-11.443
▁respir	-11.4507
▁subject	-11.4531
segur	-11.4539
▁cohere	-11.4558
phobia	-11.4574
▁ecc	-11.4579
enfels	-11.46
▁fulv	-11.461
drawn	-11.4613
▁pawl	-11.4622
▁sebast	-11.4623
tabula	-11.4629
institut	-11.4634
▁congregat	-11.4636
▁manufactur	-11.4636
artificial	-11.4636
scrupulous	-11.4636
▁accomplish	-11.4636
▁bankrupt	-11.4636
▁condescend	-11.4636
▁embezzl	-11.4636
▁encompass	-11.4636
▁encyclopedi	-11.4636
▁enthusiast	-11.4636
▁hyacinth	-11.4636
▁incapacit	-11.4636
▁incommod	-11.4636
▁labyrinth	-11.4636
▁municipal	-11.4636
▁prostitut	-11.4636
▁railroad	-11.4636
▁shakespear	-11.4636
obtrusive	-11.4636
▁anecdot	-11.4636
▁commemorat	-11.4636
▁congratulat	-11.4636
▁corroborat	-11.4636
▁disfigur	-11.4636
▁ejaculat	-11.4636
▁inaugurat	-11.4636
▁incorporat	-11.4636
▁involv	-11.4636
▁prognosticat	-11.4636
▁promulgat	-11.4636
▁resurrect	-11.4636
▁rhythm	-11.4636
prepossess	-11.4636
▁ameliorat	-11.4636
▁constrict	-11.4636
▁elucidat	-11.4636
▁lincoln	-11.4636
▁metaphysic	-11.4636
▁perpetrat	-11.4636
▁plagiaris	-11.4636
▁reflex	-11.4636
▁counterfeit	-11.4636
▁exterminat	-11.4636
▁precipitat	-11.4636
▁teetotal	-11.4636
▁traffick	-11.4636
▁gesticulat	-11.4636
▁incident	-11.4636
▁machiavel	-11.4636
▁assimilat	-11.4636
▁melanchol	-11.4636
▁arquebus	-11.4636
▁calumniat	-11.4636
▁fertiliz	-11.4636
▁upbraid	-11.4636
▁confection	-11.4636
▁dishonour	-11.4636
▁campaign	-11.4636
▁commissar	-11.4636
▁mohammed	-11.4636
▁unbeliev	-11.4636
▁disseminat	-11.4636
▁fertilis	-11.4636
▁adolph	-11.4636
▁leopold	-11.4636
▁deteriora	-11.4636
▁expostulat	-11.4636
▁intercept	-11.4636
▁president	-11.4636
▁bequeath	-11.4636
▁unhealth	-11.4636
▁grotesque	-11.4636
▁bicycl	-11.4636
▁trespass	-11.4636
▁predestin	-11.4636
▁hypnotis	-11.4636
▁sylvest	-11.4636
▁default	-11.4636
▁sceptic	-11.4636
▁original	-11.4636
▁exercis	-11.4636
▁irradia	-11.4636
▁staunch	-11.4636
▁covenant	-11.4636
▁displeas	-11.4636
▁pamphlet	-11.4636
▁schwarz	-11.4636
▁snooz	-11.4636
▁thimble	-11.4636
▁caricatur	-11.4636
▁imprecat	-11.4636
▁mihail	-11.4636
▁snicker	-11.4636
▁beseech	-11.4636
▁resident	-11.4636
▁anthropo	-11.4636
▁enlighten	-11.4636
▁transmut	-11.4637
▁infring	-11.4637
▁traduc	-11.4637
▁coffee	-11.4637
▁surpass	-11.4637
▁denounc	-11.4637
▁skulk	-11.4637
▁wrack	-11.4637
▁irrigat	-11.4637
▁abduct	-11.4637
▁abhorr	-11.4637
▁delicate	-11.4637
▁snubb	-11.4637
▁archaeolog	-11.4637
▁proxim	-11.4637
▁shrimp	-11.4637
▁dispatch	-11.4637
▁rejoice	-11.4637
▁agricultur	-11.4637
▁prebend	-11.4637
▁jealous	-11.4637
▁despatch	-11.4637
▁expend	-11.4637
▁peacock	-11.4637
attentive	-11.4637
▁enlarg	-11.4637
▁prussian	-11.4637
▁frivol	-11.4637
▁constitutional	-11.4637
▁participat	-11.4637
▁complement	-11.4637
▁psalm	-11.4637
▁amateur	-11.4637
▁dauphin	-11.4637
▁restrict	-11.4637
▁accelerat	-11.4637
▁ritual	-11.4637
▁ephemer	-11.4637
▁revolv	-11.4637
▁gospod	-11.4637
▁absurd	-11.4637
▁degenerat	-11.4637
▁contemn	-11.4637
▁conjoin	-11.4637
▁excur	-11.4638
▁patriarch	-11.4638
▁saunter	-11.4638
▁clutter	-11.4638
▁vegetat	-11.4638
▁forsyth	-11.4638
cautious	-11.4638
▁remorse	-11.4638
▁analyz	-11.4638
▁clergy	-11.4638
▁enthral	-11.4638
▁retaliat	-11.4638
accident	-11.4638
▁breakfast	-11.4638
▁dwarf	-11.4638
▁merchant	-11.4638
▁depriv	-11.4638
▁wainscot	-11.4638
▁rafael	-11.4638
▁disjoin	-11.4639
▁comrade	-11.4639
▁fruct	-11.4639
▁automobil	-11.4639
▁circuit	-11.4639
▁mortgag	-11.4639
▁florentin	-11.4639
▁mirror	-11.4639
▁aestheti	-11.4639
▁augur	-11.4639
▁convict	-11.4639
▁relax	-11.4639
▁sensual	-11.464
▁expert	-11.464
▁draft	-11.464
▁perfid	-11.464
▁tumult	-11.464
▁misrepresent	-11.464
▁convalesc	-11.464
▁celestin	-11.464
▁whitewash	-11.464
▁fathom	-11.464
▁rejoin	-11.464
▁niccol	-11.464
▁enlist	-11.464
▁impeach	-11.4641
▁reverberat	-11.4641
provision	-11.4641
▁neglect	-11.4641
▁fumigat	-11.4641
▁catechis	-11.4642
▁esteem	-11.4642
▁crescent	-11.4642
▁beacon	-11.4642
▁ulcer	-11.4642
▁epaule	-11.4642
▁recurr	-11.4643
▁interview	-11.4643
▁genteel	-11.4644
▁enhanc	-11.4644
▁propagat	-11.4644
driscol	-11.4644
▁liquidat	-11.4645
▁cupid	-11.4645
▁whimper	-11.4645
▁blackguard	-11.4645
▁smyth	-11.4645
▁exchang	-11.4645
decisive	-11.4645
▁wield	-11.4646
▁gascon	-11.4646
▁smirk	-11.4646
▁rascal	-11.4646
▁poynt	-11.4646
▁problem	-11.4647
▁citizen	-11.4647
▁dictator	-11.4647
▁procession	-11.4647
▁jeremi	-11.4647
▁shrink	-11.4647
▁adopt	-11.4648
▁casual	-11.4648
▁pummel	-11.4649
▁thorwald	-11.4649
▁environ	-11.465
▁arthur	-11.465
▁cogitat	-11.465
▁miasm	-11.465
▁laurent	-11.465
▁cavern	-11.4651
▁forbear	-11.4651
▁caution	-11.4651
knecht	-11.4652
▁chunk	-11.4652
▁dreadful	-11.4652
▁anselm	-11.4652
▁anthon	-11.4652
▁sanguine	-11.4652
▁gospel	-11.4653
▁tympan	-11.4654
▁monitor	-11.4654
▁picnic	-11.4654
▁gubb	-11.4654
▁strutt	-11.4654
▁grump	-11.4654
▁castigat	-11.4654
▁censur	-11.4654
▁chubb	-11.4654
▁clink	-11.4655
commercial	-11.4655
▁pilfer	-11.4655
▁denominat	-11.4655
efaction	-11.4656
▁strict	-11.4657
▁francisc	-11.4657
▁sebastian	-11.4657
▁reiterat	-11.4657
▁abraham	-11.4658
▁obsess	-11.4658
▁period	-11.4658
▁rhomb	-11.4658
▁shirk	-11.4659
▁glide	-11.4659
▁dervis	-11.466
strung	-11.466
▁knoll	-11.4661
▁slump	-11.4661
▁tattoo	-11.4661
▁giulia	-11.4661
▁expiat	-11.4662
▁custodi	-11.4663
▁seminar	-11.4663
▁brawl	-11.4663
▁yankee	-11.4663
▁entreat	-11.4664
▁ernest	-11.4665
▁tupp	-11.4665
▁annex	-11.4666
▁verdur	-11.4668
▁undulat	-11.4668
regrett	-11.4668
▁prolong	-11.4668
▁review	-11.4669
swivel	-11.4669
▁balloon	-11.467
▁dunstan	-11.467
▁fanatic	-11.467
▁annotat	-11.467
▁modulat	-11.4671
▁outlaw	-11.4671
▁adrian	-11.4671
▁vitalis	-11.4671
▁unloos	-11.4672
▁crimp	-11.4673
▁compensat	-11.4674
▁brazen	-11.4674
▁cygn	-11.4674
▁subsist	-11.4675
▁blister	-11.4676
apollon	-11.4676
▁euphemi	-11.4676
▁physiolog	-11.4677
▁antipa	-11.4677
▁spangl	-11.4678
▁squint	-11.4678
▁mongol	-11.4679
▁enamel	-11.4679
▁charlotte	-11.4679
▁partner	-11.468
▁legend	-11.4681
▁lorrain	-11.4681
▁badger	-11.4682
▁neigh	-11.4682
▁flounc	-11.4683
▁gobble	-11.4683
▁yelp	-11.4684
▁channel	-11.4685
▁iamb	-11.4686
▁pedant	-11.4688
▁perdi	-11.4689
▁hawthorn	-11.4689
▁sybil	-11.469
▁fancy	-11.469
▁forgett	-11.4691
▁simulat	-11.4691
▁straggl	-11.4692
▁shank	-11.4693
▁heinz	-11.4694
coffin	-11.4695
▁sperm	-11.4695
zuela	-11.4696
▁buffalo	-11.4696
▁england	-11.4698
▁prattle	-11.4698
▁recollect	-11.4699
▁halv	-11.4699
▁tunnel	-11.4701
▁disclos	-11.4704
▁iphi	-11.4705
▁vault	-11.4707
▁horati	-11.4709
▁dickens	-11.4714
laughlin	-11.4722
▁strive	-11.4724
▁wrot	-11.4727
▁jellico	-11.4729
expressive	-11.4732
▁antipo	-11.4732
▁masque	-11.4732
▁indorse	-11.4733
▁quatr	-11.4733
▁wallop	-11.4733
▁lilly	-11.4733
▁heretic	-11.4735
▁garnish	-11.4736
▁ruddi	-11.4736
▁facilit	-11.4739
▁muddi	-11.4741
▁hough	-11.475
poort	-11.4751
▁compagn	-11.4753
▁elliot	-11.4756
▁disconnect	-11.4758
▁cribb	-11.476
▁knott	-11.4761
▁rotten	-11.4761
▁slink	-11.4762
▁ordinat	-11.4767
▁inclos	-11.477
chandra	-11.4772
biorn	-11.4782
▁joust	-11.4785
▁smug	-11.4787
▁clash	-11.4788
▁interfere	-11.4793
▁displac	-11.4799
▁nomad	-11.4809
theridge	-11.481
▁lasso	-11.4814
▁uphold	-11.4826
▁neutraliz	-11.4835
▁academ	-11.4836
▁typho	-11.4841
▁member	-11.485
▁contend	-11.4852
▁blott	-11.4853
▁evasi	-11.4853
harmonic	-11.4865
▁candidat	-11.4865
ozzo	-11.4866
rogation	-11.4877
▁guillem	-11.4914
▁skelt	-11.4915
whither	-11.4936
▁tardi	-11.4937
▁strett	-11.4939
▁niko	-11.4939
▁reuni	-11.4987
spoken	-11.5005
▁bacc	-11.5006
▁jobb	-11.5012
▁glove	-11.5026
▁queri	-11.5028
▁ballad	-11.5038
▁stabb	-11.5045
▁auditor	-11.506
▁fezz	-11.506
▁cumul	-11.51
▁shopp	-11.5106
trouve	-11.5112
▁bugle	-11.5121
wyk	-11.5127
ggery	-11.5132
carrow	-11.5133
▁cicero	-11.5148
▁defac	-11.5161
appetit	-11.5187
▁maestr	-11.5202
▁hibb	-11.5206
▁detonat	-11.5216
versham	-11.5217
ronde	-11.5221
▁grabb	-11.5226
▁everythin	-11.5237
▁strapp	-11.5245
clough	-11.525
eldred	-11.5269
▁resembl	-11.527
haired	-11.527
▁nunc	-11.5277
▁mistrust	-11.5282
▁dissembl	-11.5288
▁inhere	-11.5289
▁exaggerat	-11.529
▁syph	-11.5312
mighty	-11.5322
▁archiv	-11.5324
▁dingle	-11.5343
▁distract	-11.5381
ntleman	-11.5382
▁generaliz	-11.5389
▁thinn	-11.5404
▁grease	-11.5409
▁precept	-11.5415
gotten	-11.5416
gnall	-11.5444
▁crumm	-11.5446
academic	-11.5455
vigny	-11.5456
▁acquiesce	-11.5463
▁quarrell	-11.5477
nickel	-11.5499
▁ehren	-11.5501
winkel	-11.5508
▁concept	-11.5509
mixture	-11.5515
appearance	-11.5541
▁themsel	-11.5599
▁olymp	-11.5603
▁technic	-11.5615
▁vertu	-11.5637
graduate	-11.5654
existence	-11.5676
▁coloniz	-11.5751
▁vassi	-11.5751
▁ronc	-11.5801
▁ingeni	-11.5802
▁philolog	-11.5806
study	-11.5819
▁distrust	-11.5832
▁baudr	-11.5846
sturm	-11.5859
▁josef	-11.5878
lunar	-11.5924
appelle	-11.6001
▁meteor	-11.6007
▁petroni	-11.6022
▁allegori	-11.6041
▁disagree	-11.6066
▁conscript	-11.6097
charged	-11.6121
▁anglo	-11.6134
▁pulsat	-11.6153
▁enunciat	-11.6172
syllabic	-11.6179
moulin	-11.6182
▁raphael	-11.6211
▁vitr	-11.6245
ocracy	-11.6251
▁system	-11.6262
▁architect	-11.6268
▁compliment	-11.6276
location	-11.6285
▁intellect	-11.629
▁comprehend	-11.6297
▁alcohol	-11.6303
▁archbishop	-11.6303
▁sovereign	-11.6303
▁unpleasant	-11.6303
intelligence	-11.6303
pfennig	-11.6303
▁circumnavigat	-11.6303
▁daffodil	-11.6303
▁discontinu	-11.6303
▁discredit	-11.6303
▁excommunicat	-11.6303
▁exculpat	-11.6303
▁homoeopath	-11.6303
▁hypochondria	-11.6303
▁inconsequent	-11.6303
▁inconvenienc	-11.6303
▁incriminat	-11.6303
▁inculcat	-11.6303
▁insurrection	-11.6303
▁invigorat	-11.6303
▁misbehav	-11.6303
▁philadelph	-11.6303
▁phosphor	-11.6303
▁physiognom	-11.6303
▁prefigur	-11.6303
▁prejudic	-11.6303
▁recapitulat	-11.6303
▁reciprocat	-11.6303
▁stereotyp	-11.6303
▁transfigur	-11.6303
▁annihilat	-11.6303
▁bjoern	-11.6303
▁bludgeon	-11.6303
▁disarrang	-11.6303
▁discomfit	-11.6303
▁discomfort	-11.6303
▁disorganiz	-11.6303
▁ecclesiastic	-11.6303
▁infatuat	-11.6303
▁infidel	-11.6303
▁misjudg	-11.6303
▁procrastinat	-11.6303
▁relinquish	-11.6303
▁retrospect	-11.6303
▁seignior	-11.6303
▁ventriloqui	-11.6303
▁vociferat	-11.6303
aphrodit	-11.6303
▁aeronaut	-11.6303
▁amalgamat	-11.6303
▁cooerdinat	-11.6303
▁readjust	-11.6303
▁disclaim	-11.6303
▁hypnotiz	-11.6303
▁oligarch	-11.6303
▁transplant	-11.6303
▁volunteer	-11.6303
▁adjourn	-11.6303
▁effervesc	-11.6303
▁european	-11.6303
▁evaporat	-11.6303
▁glisten	-11.6303
▁intimidat	-11.6303
▁disavow	-11.6303
▁maneuver	-11.6303
▁squawk	-11.6303
▁unsheath	-11.6303
▁discolour	-11.6303
▁elephant	-11.6303
▁inebriat	-11.6303
▁conjectur	-11.6303
▁genealog	-11.6303
▁phenomen	-11.6303
▁skylark	-11.6303
americain	-11.6303
parliamentar	-11.6303
▁instinct	-11.6303
▁overturn	-11.6303
▁reorganiz	-11.6303
▁reprobat	-11.6303
▁sacrifice	-11.6303
▁declaim	-11.6303
▁resource	-11.6303
▁unquestion	-11.6303
▁anastasi	-11.6303
▁subtract	-11.6303
sullivan	-11.6303
▁chirrup	-11.6303
▁ptolem	-11.6303
▁aggregat	-11.6303
▁dishearten	-11.6303
▁ferdinand	-11.6303
▁sequestrat	-11.6303
▁suspect	-11.6303
▁bachelor	-11.6303
▁chancellor	-11.6303
fjord	-11.6303
▁fountain	-11.6303
▁immolat	-11.6303
▁vituperat	-11.6303
▁coordinat	-11.6303
▁hiccup	-11.6303
▁thwack	-11.6303
▁disinfect	-11.6303
▁embellish	-11.6303
▁inoculat	-11.6303
▁prodigal	-11.6303
▁ricochet	-11.6303
▁stipulat	-11.6303
▁exempt	-11.6303
▁farquhar	-11.6303
▁arraign	-11.6303
▁emigrat	-11.6303
▁vacillat	-11.6303
▁deflect	-11.6303
▁lawrence	-11.6303
▁confiscat	-11.6303
▁extenuat	-11.6303
▁intermeddl	-11.6303
▁reclaim	-11.6303
▁enliven	-11.6303
▁overwhelm	-11.6303
▁eradicat	-11.6303
▁theophil	-11.6303
▁etymolog	-11.6303
▁expound	-11.6303
▁applaud	-11.6303
▁evacuat	-11.6303
▁dissolv	-11.6303
▁excret	-11.6303
▁forewarn	-11.6303
▁forfeit	-11.6303
▁remunerat	-11.6303
▁refuge	-11.6303
▁unthank	-11.6303
▁replenish	-11.6303
▁fiction	-11.6303
▁disentangl	-11.6303
▁necessari	-11.6303
▁smudg	-11.6303
▁talmud	-11.6303
▁navajo	-11.6303
▁contaminat	-11.6303
▁hierarch	-11.6303
▁ishmael	-11.6303
▁overflow	-11.6303
▁twelve	-11.6303
▁benefit	-11.6303
▁entomb	-11.6303
▁stabiliz	-11.6303
▁supplement	-11.6303
▁leopard	-11.6303
▁divorce	-11.6303
▁dmitri	-11.6303
▁research	-11.6303
▁attenuat	-11.6303
▁slobber	-11.6303
▁membran	-11.6303
▁torpedo	-11.6303
▁blackmail	-11.6303
▁fantastic	-11.6303
▁squander	-11.6303
▁juniper	-11.6303
▁percolat	-11.6303
▁everlastin	-11.6303
▁implicat	-11.6303
▁interdict	-11.6303
▁suspend	-11.6303
▁moonshin	-11.6303
▁enthron	-11.6303
▁dishonor	-11.6303
▁cudgel	-11.6303
▁hector	-11.6303
▁spragg	-11.6303
▁distaste	-11.6304
▁newspaper	-11.6304
▁whizz	-11.6304
▁abominat	-11.6304
aiguill	-11.6304
▁protract	-11.6304
▁defence	-11.6304
▁asphalt	-11.6304
longshore	-11.6304
▁remodel	-11.6304
▁westphal	-11.6304
heiligen	-11.6304
▁unobserv	-11.6304
▁menstru	-11.6304
▁skeptic	-11.6304
▁abstain	-11.6304
etranger	-11.6304
▁lachrym	-11.6304
▁suspens	-11.6304
▁hyperbol	-11.6304
▁renounc	-11.6304
▁lubricat	-11.6304
▁thousand	-11.6304
▁weapon	-11.6304
▁residenc	-11.6304
▁recuperat	-11.6304
▁wimble	-11.6304
▁dakota	-11.6304
▁musician	-11.6304
▁circumvent	-11.6304
▁twitter	-11.6304
▁splendid	-11.6304
▁enjoin	-11.6304
▁wrinkl	-11.6304
▁feodor	-11.6304
▁stencil	-11.6304
▁deutsch	-11.6305
▁portrait	-11.6305
▁utilis	-11.6305
▁alleviat	-11.6305
▁chieftain	-11.6305
▁carpenter	-11.6305
▁demolish	-11.6305
▁presuppos	-11.6305
▁steamboat	-11.6305
▁struggle	-11.6305
▁reenforc	-11.6305
anglais	-11.6305
▁gonzal	-11.6305
▁outrage	-11.6305
▁challenge	-11.6305
▁monument	-11.6305
▁elegant	-11.6305
▁symphoni	-11.6305
▁protege	-11.6305
▁unequal	-11.6305
▁whelp	-11.6305
▁conjure	-11.6305
▁czern	-11.6305
▁telescop	-11.6305
▁swoop	-11.6306
▁knuckl	-11.6306
▁jefferson	-11.6306
▁twigg	-11.6306
▁solomon	-11.6306
▁institution	-11.6306
▁viscount	-11.6306
▁smatter	-11.6306
▁gambol	-11.6306
▁cajole	-11.6306
▁glynn	-11.6306
▁congeal	-11.6306
naissance	-11.6306
▁spatter	-11.6306
▁clown	-11.6306
▁affiliat	-11.6306
▁interpolat	-11.6306
▁burthen	-11.6306
schmidt	-11.6306
▁drench	-11.6306
▁brazil	-11.6306
▁dissipat	-11.6306
▁invok	-11.6306
▁vassilyev	-11.6307
▁casuist	-11.6307
▁pyrrh	-11.6307
▁wealth	-11.6307
▁spunk	-11.6307
▁pivot	-11.6307
▁mitigat	-11.6307
▁whirr	-11.6307
▁eleanor	-11.6307
▁unearth	-11.6307
▁bayonet	-11.6307
▁sleuth	-11.6307
▁prescrib	-11.6307
▁jimmie	-11.6307
▁fulminat	-11.6307
▁morbid	-11.6307
▁smuggle	-11.6307
▁burgund	-11.6307
▁exceed	-11.6308
▁tantaliz	-11.6308
▁officer	-11.6308
▁sprigg	-11.6308
▁muhamm	-11.6308
▁maharaja	-11.6308
▁moffat	-11.6308
▁giorgi	-11.6308
▁ethereal	-11.6308
▁gringo	-11.6308
▁shuffle	-11.6309
▁thistle	-11.6309
▁brawn	-11.6309
▁bewail	-11.6309
▁broider	-11.6309
▁telepath	-11.6309
▁byrd	-11.6309
▁berserk	-11.6309
▁clinch	-11.6309
▁shatter	-11.6309
▁dismay	-11.6309
▁shrub	-11.6309
▁livingston	-11.631
▁equaliz	-11.631
▁weird	-11.631
▁patient	-11.631
▁mesmeris	-11.631
▁recoil	-11.631
▁velvet	-11.6311
▁conceit	-11.6311
▁flounder	-11.6311
▁prudent	-11.6311
▁cavalca	-11.6311
▁trawl	-11.6312
▁depict	-11.6312
▁baronet	-11.6312
▁opposition	-11.6312
wizard	-11.6312
▁helveti	-11.6312
▁aiken	-11.6312
▁misinterpret	-11.6312
▁hopeful	-11.6312
▁discolor	-11.6312
▁punctuat	-11.6313
▁epicure	-11.6313
▁scold	-11.6313
▁crunch	-11.6313
▁italien	-11.6313
▁bibliograph	-11.6313
▁perforat	-11.6313
▁imbib	-11.6313
▁decay	-11.6314
▁centuri	-11.6314
▁septim	-11.6314
▁brought	-11.6314
▁sylph	-11.6314
▁sociolog	-11.6314
▁sparrow	-11.6314
▁sybari	-11.6314
prudence	-11.6315
▁congest	-11.6315
farlane	-11.6315
▁enact	-11.6315
▁ascetic	-11.6315
▁vulcan	-11.6316
▁linguist	-11.6316
▁quibbl	-11.6316
▁philpot	-11.6316
▁digress	-11.6316
boeuf	-11.6316
▁moonlight	-11.6316
▁grudg	-11.6316
▁propound	-11.6316
▁shimmer	-11.6317
▁assort	-11.6317
▁confront	-11.6317
▁avoid	-11.6317
▁ventilat	-11.6317
▁buffoon	-11.6317
stricken	-11.6318
▁cutlas	-11.6318
▁oyster	-11.6318
▁tigre	-11.6318
▁snigg	-11.6318
▁bairn	-11.6318
▁glint	-11.6318
▁unclean	-11.6318
▁wrath	-11.6318
▁sullen	-11.6318
▁anoint	-11.6319
▁slosh	-11.6319
▁withdraw	-11.632
▁arnold	-11.632
▁swarm	-11.632
▁reinforc	-11.632
▁ethnolog	-11.6321
haupt	-11.6321
▁emblem	-11.6321
dramatic	-11.6321
▁swaller	-11.6321
▁sloven	-11.6322
▁ignati	-11.6322
▁churl	-11.6322
▁johnson	-11.6322
▁fossil	-11.6322
▁ralph	-11.6323
▁await	-11.6323
▁corusca	-11.6323
▁subvert	-11.6324
▁amaranth	-11.6324
▁bramble	-11.6324
▁forsake	-11.6324
▁transcribe	-11.6324
▁clump	-11.6326
▁sylvi	-11.6326
▁utopi	-11.6326
▁alfred	-11.6327
▁nimble	-11.6327
▁sloth	-11.6328
▁brigand	-11.6329
turbid	-11.6329
clinton	-11.6329
▁pleasure	-11.633
▁amerik	-11.6331
▁above	-11.6331
▁decompos	-11.6332
▁sculptur	-11.6333
▁spruce	-11.6333
▁brindle	-11.6334
acquaintance	-11.6335
▁johnston	-11.6335
▁olivi	-11.6335
▁withhold	-11.6335
▁breeze	-11.6336
▁doctrina	-11.6336
▁grocer	-11.6336
▁sartori	-11.6336
▁furrow	-11.6337
▁bolivi	-11.6338
▁terrestr	-11.6338
▁smelt	-11.6338
▁tassel	-11.6339
▁shambl	-11.634
▁curvet	-11.634
▁masticat	-11.634
▁deacon	-11.6341
▁classifi	-11.6341
▁erupt	-11.6341
sartain	-11.6342
▁calamit	-11.6343
▁ankle	-11.6344
▁conservator	-11.6346
▁studio	-11.6346
▁liege	-11.6346
▁xanth	-11.6347
▁stubborn	-11.635
▁endorse	-11.635
▁household	-11.6351
▁retard	-11.6352
▁yowl	-11.6352
▁northern	-11.6359
▁foreclos	-11.6361
▁discharg	-11.6366
▁dardan	-11.6367
loughlin	-11.637
nominal	-11.6373
▁transmitt	-11.6373
orific	-11.638
eglise	-11.6381
▁housekeep	-11.6381
▁parcel	-11.6385
▁secund	-11.6385
▁swindle	-11.6387
▁feebl	-11.6393
▁beginne	-11.6395
▁deuce	-11.6395
▁discours	-11.6397
▁liveli	-11.6398
▁wiv	-11.6402
▁tragic	-11.6403
▁insert	-11.6403
▁komm	-11.6408
▁ursul	-11.6409
▁cheep	-11.6413
▁ripple	-11.6413
parnass	-11.6413
▁vultur	-11.6414
▁smut	-11.6415
▁rescue	-11.6415
▁girald	-11.6424
▁surpriz	-11.6426
▁frogg	-11.6427
▁quimb	-11.6429
▁bernhard	-11.6429
▁sprint	-11.6431
surface	-11.6436
▁coerc	-11.6438
wiggins	-11.6442
▁savoy	-11.6443
▁gyrat	-11.6446
▁dredge	-11.645
▁slag	-11.645
▁collectiv	-11.6451
▁geometr	-11.6454
▁carthag	-11.6456
▁incomprehensi	-11.6458
kopf	-11.646
▁jusqu	-11.6461
▁boyl	-11.6462
▁derb	-11.6467
carthy	-11.647
▁custo	-11.6475
▁scann	-11.6487
▁remote	-11.6487
▁cyrill	-11.6487
▁hoarse	-11.6489
▁syria	-11.649
▁thym	-11.649
lithic	-11.6491
hotep	-11.6496
▁montagu	-11.6499
swami	-11.6504
▁plunge	-11.6505
fixed	-11.6509
▁patholog	-11.6509
▁provenc	-11.652
▁osborn	-11.6521
▁ungentl	-11.6537
animate	-11.655
▁outgrow	-11.6551
▁aroma	-11.6552
rdyce	-11.6555
▁fancie	-11.6572
▁oversee	-11.658
oshka	-11.6599
▁wessel	-11.661
▁retro	-11.6625
▁comfortabl	-11.6625
▁pledg	-11.6639
▁flopp	-11.664
▁avenge	-11.665
semblance	-11.6665
▁steyn	-11.6675
collop	-11.668
▁ninn	-11.6694
plush	-11.6699
farrell	-11.6703
▁weddin	-11.6725
payment	-11.673
▁tabb	-11.675
boodle	-11.6753
praised	-11.6758
artizan	-11.6759
▁acclimati	-11.6765
▁aristocrat	-11.6775
▁bingle	-11.6794
▁scheme	-11.6808
pennie	-11.6808
obbed	-11.6833
▁compute	-11.6845
▁dislocat	-11.6856
hustle	-11.6859
▁stampede	-11.6871
▁transact	-11.6897
poose	-11.6909
rouet	-11.691
planche	-11.6913
clift	-11.6917
▁suburb	-11.6923
▁enrag	-11.6931
▁coexist	-11.6972
▁cupp	-11.6976
▁intersect	-11.6984
▁derogat	-11.7004
▁aerop	-11.7009
arragon	-11.7019
▁discourage	-11.7021
▁prude	-11.7024
falutin	-11.7029
agatho	-11.7035
blown	-11.7077
platz	-11.7101
afferty	-11.7122
▁tyrrel	-11.7155
production	-11.7181
▁compete	-11.7182
connected	-11.7189
▁lofti	-11.7203
▁iowa	-11.7204
wyck	-11.7214
francois	-11.7221
mortem	-11.7232
operative	-11.7246
▁perturb	-11.7276
▁breezi	-11.7282
gibbet	-11.7293
glaze	-11.7319
fruit	-11.7326
agnon	-11.7343
▁resolv	-11.7343
valuation	-11.7372
oolah	-11.7441
▁iterat	-11.7448
blende	-11.7565
addling	-11.7592
▁pytho	-11.7612
▁macerat	-11.7655
▁magnifi	-11.7754
acclimat	-11.7766
girard	-11.7793
▁pancra	-11.7813
▁control	-11.7814
▁international	-11.7877
▁greasi	-11.7895
tickler	-11.79
▁specific	-11.7949
allied	-11.7974
creative	-11.7994
▁giovan	-11.8103
▁ladisla	-11.8186
▁cruise	-11.8207
furst	-11.821
rairie	-11.8218
▁conjunct	-11.823
▁collegi	-11.8244
donoghue	-11.8303
▁disadvantage	-11.8303
▁necromanc	-11.8303
▁ambassador	-11.8303
▁bushwhack	-11.8303
▁catastroph	-11.8303
▁consequent	-11.8303
▁disembark	-11.8303
▁encyclopaedi	-11.8303
▁endeavor	-11.8303
▁endeavour	-11.8303
▁extraordinar	-11.8303
▁foreshadow	-11.8303
▁impregnat	-11.8303
▁incomplet	-11.8303
▁incorrupt	-11.8303
▁indifferent	-11.8303
▁indispensab	-11.8303
▁indistinct	-11.8303
▁intercommun	-11.8303
▁interpenetrat	-11.8303
▁irregular	-11.8303
▁misconstru	-11.8303
▁objurgat	-11.8303
▁pachyderm	-11.8303
▁reaffirm	-11.8303
▁redemption	-11.8303
▁resuscitat	-11.8303
▁scoundrel	-11.8303
▁shipwreck	-11.8303
▁suspicion	-11.8303
▁swedenborg	-11.8303
▁unhappi	-11.8303
appreciative	-11.8303
controversial	-11.8303
vrouw	-11.8303
▁accompani	-11.8303
▁autobiograph	-11.8303
▁beleaguer	-11.8303
▁discontent	-11.8303
▁discreet	-11.8303
▁disembowel	-11.8303
▁disinherit	-11.8303
▁enraptur	-11.8303
▁expatriat	-11.8303
▁experienc	-11.8303
▁explod	-11.8303
▁fyodor	-11.8303
▁hieroglyph	-11.8303
▁idiosyncra	-11.8303
▁immigrat	-11.8303
▁infiltrat	-11.8303
▁intelligent	-11.8303
▁interrogator	-11.8303
▁metamorphos	-11.8303
▁miscalculat	-11.8303
▁occidental	-11.8303
▁porphyri	-11.8303
▁premeditat	-11.8303
▁recommenc	-11.8303
▁reduplicat	-11.8303
▁refrigerat	-11.8303
▁stigmatiz	-11.8303
▁substantiat	-11.8303
▁typewrit	-11.8303
▁unrecogniz	-11.8303
chromatic	-11.8303
titudinous	-11.8303
▁apostle	-11.8303
▁autocrat	-11.8303
▁bivouac	-11.8303
▁conscience	-11.8303
▁disenchant	-11.8303
▁emblazon	-11.8303
▁enfeebl	-11.8303
▁extirpat	-11.8303
▁matrimoni	-11.8303
▁peculiar	-11.8303
▁rejuvenat	-11.8303
▁sollicit	-11.8303
susceptib	-11.8303
▁abbreviat	-11.8303
▁apostol	-11.8303
▁conflict	-11.8303
▁paraphras	-11.8303
▁retrench	-11.8303
▁zephyr	-11.8303
cotyledon	-11.8303
▁ambigu	-11.8303
▁artillery	-11.8303
▁bismarck	-11.8303
▁dissimulat	-11.8303
▁exclaim	-11.8303
▁hybrid	-11.8303
▁scaffold	-11.8303
▁bullfight	-11.8303
▁catalogu	-11.8303
▁cuckold	-11.8303
▁decapitat	-11.8303
▁demoralis	-11.8303
▁fraterniz	-11.8303
▁indirect	-11.8303
▁miscellan	-11.8303
▁rearrange	-11.8303
▁synonym	-11.8303
▁taxiderm	-11.8303
▁unintermitt	-11.8303
▁upturn	-11.8303
▁defraud	-11.8303
▁disbelieve	-11.8303
▁drizzl	-11.8303
▁reincarnat	-11.8303
▁sympathize	-11.8303
▁compromise	-11.8303
▁dissociat	-11.8303
▁handwrit	-11.8303
▁impoverish	-11.8303
▁lxxi	-11.8303
shaughnessy	-11.8303
▁advantage	-11.8303
▁discompos	-11.8303
▁emphasis	-11.8303
▁intrench	-11.8303
▁sputter	-11.8303
▁alphabet	-11.8303
▁dislodg	-11.8303
▁disregard	-11.8303
▁garibaldi	-11.8303
▁accentuat	-11.8303
▁derelict	-11.8303
▁misfortun	-11.8303
▁splutter	-11.8303
▁underestimat	-11.8303
▁equivocat	-11.8303
▁propagand	-11.8303
▁subjugat	-11.8303
▁sympathise	-11.8303
▁visualiz	-11.8303
▁giusepp	-11.8303
▁laodice	-11.8303
▁obliterat	-11.8303
▁pessimist	-11.8303
▁umbrell	-11.8303
▁underwrit	-11.8303
▁encircl	-11.8303
▁hallucinat	-11.8303
▁surrender	-11.8303
▁appertain	-11.8303
▁asclepi	-11.8303
▁debilitat	-11.8303
▁demoraliz	-11.8303
▁fundament	-11.8303
▁millionaire	-11.8303
provocative	-11.8303
▁cannibal	-11.8303
▁dynamit	-11.8303
▁tancred	-11.8303
▁professional	-11.8303
▁forlorn	-11.8303
▁overthrow	-11.8303
▁scramble	-11.8303
▁sumptu	-11.8303
▁unexpect	-11.8303
▁excoriat	-11.8303
▁wholesome	-11.8303
▁gormandiz	-11.8303
▁metaphor	-11.8303
▁coagulat	-11.8303
▁cooeperat	-11.8303
▁disparage	-11.8303
▁encreas	-11.8303
▁awkward	-11.8303
▁gendarme	-11.8303
▁guzzl	-11.8303
▁negociat	-11.8303
▁confident	-11.8303
▁dimension	-11.8303
▁proconsul	-11.8303
flaherty	-11.8303
▁unforget	-11.8303
▁rodolph	-11.8303
▁upstart	-11.8303
▁reassert	-11.8303
▁escort	-11.8303
▁motivat	-11.8303
▁potential	-11.8303
▁sutherland	-11.8303
▁conjugat	-11.8303
▁amherst	-11.8303
industrie	-11.8303
▁embroil	-11.8303
▁halcyon	-11.8303
▁compassionate	-11.8303
▁cypher	-11.8303
▁adjudicat	-11.8303
▁document	-11.8303
▁guillotin	-11.8303
▁marguerit	-11.8303
▁percival	-11.8303
erwhelm	-11.8303
▁anguish	-11.8303
attempt	-11.8303
▁betoken	-11.8303
▁irresistib	-11.8303
▁derwent	-11.8303
▁vigilant	-11.8303
▁wordsworth	-11.8303
▁elaborate	-11.8303
▁throbb	-11.8303
▁enwrap	-11.8303
▁charlatan	-11.8303
▁apportion	-11.8303
▁mahommed	-11.8303
▁napoleon	-11.8303
▁transcendental	-11.8303
sceptre	-11.8303
▁imbecil	-11.8303
▁cuirass	-11.8303
▁mislead	-11.8303
▁phylli	-11.8303
▁gymnast	-11.8303
▁scupper	-11.8303
▁scribble	-11.8303
▁viceroy	-11.8303
▁bulldoz	-11.8303
▁hercule	-11.8303
▁retrograd	-11.8303
▁navarre	-11.8303
▁overhaul	-11.8303
▁anthropolog	-11.8303
▁embitter	-11.8303
▁sprinkle	-11.8303
▁chromo	-11.8303
▁hortensi	-11.8303
▁scaveng	-11.8304
▁maccabe	-11.8304
▁somewhe	-11.8304
▁absolv	-11.8304
▁entrench	-11.8304
▁polygam	-11.8304
▁lonesome	-11.8304
▁deploy	-11.8304
▁mahomet	-11.8304
▁engulf	-11.8304
▁immoral	-11.8304
▁adjoin	-11.8304
▁monogam	-11.8304
▁cavalry	-11.8304
▁outpour	-11.8304
▁intention	-11.8304
ordinaire	-11.8304
▁disallow	-11.8304
▁coastguard	-11.8304
▁diminish	-11.8304
▁overleap	-11.8304
▁divulg	-11.8304
▁stumble	-11.8304
▁effendi	-11.8304
▁anonym	-11.8304
▁chiffon	-11.8304
▁phrenolog	-11.8304
▁pseud	-11.8304
▁zenobi	-11.8304
▁abolish	-11.8304
awdrey	-11.8304
▁seignor	-11.8304
▁suffrage	-11.8304
▁expatiat	-11.8304
▁elisabet	-11.8304
▁embower	-11.8304
▁marechal	-11.8304
heureuse	-11.8304
▁desolate	-11.8304
opoulo	-11.8304
▁irritati	-11.8304
▁defensi	-11.8304
anxious	-11.8304
▁carabine	-11.8304
▁residu	-11.8304
▁uprear	-11.8304
▁coyote	-11.8304
▁gratulat	-11.8304
▁eccentric	-11.8304
▁committee	-11.8304
▁cipher	-11.8304
▁outcrop	-11.8304
▁unknown	-11.8305
▁elphin	-11.8305
▁grandpap	-11.8305
▁unlearn	-11.8305
▁bacchanal	-11.8305
▁enervat	-11.8305
▁upspr	-11.8305
▁maltreat	-11.8305
▁axiom	-11.8305
▁esthetic	-11.8305
▁disband	-11.8305
▁punctilio	-11.8305
▁implement	-11.8305
▁posthum	-11.8305
▁peasant	-11.8305
▁trundle	-11.8305
▁acrobat	-11.8305
▁anywh	-11.8305
▁interchange	-11.8305
▁populariz	-11.8305
▁leisure	-11.8305
▁confucian	-11.8305
▁czech	-11.8305
▁clegg	-11.8305
▁abnegat	-11.8305
▁frigid	-11.8305
▁programme	-11.8305
▁transpir	-11.8305
▁hemming	-11.8305
▁steriliz	-11.8305
▁inevitab	-11.8305
▁purloin	-11.8305
▁sentinel	-11.8305
▁utiliz	-11.8305
▁enigma	-11.8305
▁pyrotechn	-11.8305
▁twiddl	-11.8305
▁partheno	-11.8305
▁cymri	-11.8305
▁mahomed	-11.8305
▁flimsi	-11.8306
▁incens	-11.8306
▁southwest	-11.8306
▁entomolog	-11.8306
▁pioneer	-11.8306
▁gnash	-11.8306
occhio	-11.8306
▁friedrich	-11.8306
▁dogmatis	-11.8306
▁technolog	-11.8306
▁pierrot	-11.8306
▁wyvern	-11.8306
▁irving	-11.8306
▁saracen	-11.8306
▁pendarv	-11.8306
▁talbot	-11.8306
▁vacation	-11.8306
▁beseem	-11.8306
▁mollusc	-11.8306
▁provost	-11.8306
▁northwest	-11.8306
▁masquerade	-11.8306
▁spencer	-11.8307
▁sweetheart	-11.8307
▁shrewd	-11.8307
▁spawn	-11.8307
▁buerger	-11.8307
▁egotist	-11.8307
▁ronald	-11.8307
▁drachm	-11.8307
▁assyria	-11.8307
▁stumblin	-11.8307
▁subscribe	-11.8307
▁crinkl	-11.8307
▁infest	-11.8308
▁postpone	-11.8308
auvergn	-11.8308
▁bharat	-11.8308
▁asthma	-11.8308
▁initial	-11.8308
▁infam	-11.8308
▁exonerat	-11.8308
▁zachari	-11.8308
▁defeat	-11.8308
osaurus	-11.8308
▁replica	-11.8308
▁brutaliz	-11.8308
▁swerve	-11.8308
▁drudge	-11.8308
phernes	-11.8308
▁baulk	-11.8308
▁unveil	-11.8308
▁trapez	-11.8309
▁pimpernel	-11.8309
▁arcadia	-11.8309
▁valkyr	-11.8309
▁fritter	-11.8309
▁philomel	-11.8309
▁serafin	-11.8309
▁hateful	-11.8309
▁churn	-11.8309
▁warehouse	-11.8309
▁chauffeu	-11.8309
▁paradox	-11.8309
▁consort	-11.8309
▁orphe	-11.8309
▁southeast	-11.831
▁unappr	-11.831
allemand	-11.831
▁fwh	-11.831
▁retreat	-11.831
▁variegat	-11.831
▁acquitt	-11.831
▁expell	-11.831
▁unsettle	-11.831
▁jaeger	-11.831
▁gnome	-11.831
▁outstrip	-11.831
▁cumming	-11.831
▁disburs	-11.831
▁sincere	-11.831
▁cheerfull	-11.831
▁excise	-11.831
donovan	-11.8311
▁pontific	-11.8311
▁weevil	-11.8311
▁slouch	-11.8311
▁jakob	-11.8311
▁damasc	-11.8311
▁unfurl	-11.8311
▁mismanag	-11.8311
▁sobiesk	-11.8311
▁asseverat	-11.8312
▁immobil	-11.8312
▁orlean	-11.8312
origine	-11.8312
▁spartan	-11.8312
▁slither	-11.8312
ignorant	-11.8312
▁northeast	-11.8312
▁intreat	-11.8312
▁moisten	-11.8312
▁manicur	-11.8312
sensational	-11.8312
▁crochet	-11.8313
▁skirl	-11.8313
▁idolatr	-11.8313
▁germinat	-11.8313
▁senior	-11.8313
▁lucreti	-11.8313
▁souffr	-11.8313
▁piccin	-11.8314
▁hunyad	-11.8314
▁converge	-11.8314
▁foreign	-11.8314
▁slender	-11.8314
leicester	-11.8314
▁lantern	-11.8315
▁boehm	-11.8315
▁amputat	-11.8315
uvray	-11.8316
▁portico	-11.8316
▁starost	-11.8316
▁giusti	-11.8316
▁blurr	-11.8317
▁sophisticat	-11.8317
kranz	-11.8318
▁addict	-11.8318
▁feign	-11.8318
▁extricat	-11.8319
▁indigen	-11.8319
▁flagellat	-11.832
▁mussulm	-11.832
▁handicap	-11.832
▁paralyze	-11.832
▁typograph	-11.832
▁xeno	-11.832
▁grumm	-11.8321
▁dainti	-11.8321
▁roosh	-11.8321
▁jopp	-11.8322
progressive	-11.8322
▁fractu	-11.8323
▁volatil	-11.8323
▁abdicat	-11.8323
▁align	-11.8324
▁spiritualiz	-11.8324
▁excuse	-11.8324
▁transfix	-11.8325
▁proverb	-11.8325
▁habituat	-11.8325
athletic	-11.8327
▁uncompl	-11.8327
▁gonzag	-11.8327
▁titillat	-11.8328
▁historic	-11.8329
▁resort	-11.833
▁vincenz	-11.833
▁evict	-11.833
▁contrive	-11.8332
▁decant	-11.8332
▁expectorat	-11.8332
▁meikl	-11.8333
▁atheist	-11.8333
▁loewen	-11.8334
▁retort	-11.8334
▁marquesa	-11.8336
▁adrien	-11.8336
dogmatic	-11.8337
▁flogg	-11.8337
▁historia	-11.8337
randolph	-11.8338
▁scipio	-11.8338
beloved	-11.8342
mobile	-11.8343
▁tenebr	-11.8344
eminence	-11.8344
▁bedevil	-11.8344
doodle	-11.8345
carrol	-11.8345
▁relegat	-11.8349
▁jasmin	-11.835
▁virgili	-11.8351
▁messalin	-11.8351
▁deign	-11.8352
▁trypho	-11.8356
▁decade	-11.8357
trustful	-11.836
▁deterr	-11.8365
sheesh	-11.8365
▁bristl	-11.8366
▁dialog	-11.8366
▁loneli	-11.8368
▁stagnat	-11.8368
▁elongat	-11.8369
harmonious	-11.8369
▁scrawl	-11.837
▁rectifie	-11.8373
▁poltro	-11.8373
▁wheedle	-11.8376
▁shirr	-11.8379
▁invite	-11.8379
▁sentenc	-11.838
▁embryo	-11.8384
▁antoine	-11.8387
▁trifle	-11.8391
▁midget	-11.8391
▁phaedr	-11.8392
▁conveyanc	-11.8396
energetic	-11.8399
▁prefix	-11.8405
▁melodram	-11.8408
▁kirtle	-11.8409
brueck	-11.841
ragnar	-11.8411
partisan	-11.8413
▁dispense	-11.8413
▁homolog	-11.8414
reflective	-11.8415
▁includ	-11.842
▁dawdle	-11.8421
mishka	-11.8423
▁friendli	-11.8424
grandfather	-11.8427
▁almanac	-11.8438
▁tyndal	-11.844
clellan	-11.844
▁justifie	-11.8456
▁reanimat	-11.8469
▁orteg	-11.848
partition	-11.8481
colonial	-11.8482
▁modifi	-11.8486
secretary	-11.8486
▁iberi	-11.8488
▁satya	-11.8494
rummage	-11.8502
hydrate	-11.8506
liguri	-11.8506
▁clym	-11.8509
giovanni	-11.8512
presentative	-11.8517
jammer	-11.8544
▁frapp	-11.8545
sentient	-11.8545
▁cicatri	-11.8552
faucon	-11.8564
▁pennsylvan	-11.8569
▁nogg	-11.8573
▁gnat	-11.8578
gorman	-11.8579
▁counteract	-11.8585
friars	-11.8621
dollar	-11.8624
▁goggl	-11.8632
▁wabbl	-11.8642
▁delude	-11.8643
▁drachen	-11.8647
spiritual	-11.8655
▁objectiv	-11.866
article	-11.8669
▁stimul	-11.8674
eeboo	-11.8683
▁cratur	-11.8691
▁prefac	-11.8696
virtuous	-11.8698
▁instanc	-11.8723
▁chronolog	-11.8736
▁undervalu	-11.8745
contour	-11.8762
▁pebbl	-11.8786
▁bisect	-11.8801
▁purifie	-11.8806
▁inkst	-11.8812
▁abrogat	-11.8814
instruction	-11.8821
▁chaunc	-11.8834
praxi	-11.8876
▁trappe	-11.8886
▁zoolog	-11.891
logged	-11.8918
chronicle	-11.8947
▁conniv	-11.8958
▁arrogat	-11.8958
fogle	-11.9014
▁perorat	-11.9023
▁gipp	-11.9035
▁presidi	-11.905
▁consecrat	-11.9069
ostrov	-11.908
built	-11.9101
republican	-11.9113
bandage	-11.9134
greve	-11.9156
▁patheti	-11.9182
viscera	-11.9184
▁graduat	-11.922
technical	-11.9228
frou	-11.9245
▁procreat	-11.9251
copter	-11.9275
trevor	-11.9294
creek	-11.9309
ennui	-11.9356
solvable	-11.9366
▁intermix	-11.938
▁gwil	-11.9397
▁yapp	-11.9397
▁stumm	-11.9552
violet	-11.9557
▁perenni	-11.9589
caustic	-11.9634
mancipation	-11.964
respondent	-11.9669
nzig	-11.9679
▁satisfy	-11.9687
▁coign	-11.9745
▁reappear	-11.9771
laurier	-11.9885
consecrate	-11.99
disposed	-11.9962
prized	-12.0077
▁perfec	-12.0285
fashioned	-12.0385
clerical	-12.0492
▁wilfr	-12.0522
▁diploma	-12.0578
curve	-12.0585
violate	-12.0597
spoonful	-12.0605
cluded	-12.0616
hagger	-12.0631
aubign	-12.0715
▁handkerch	-12.0721
▁dazzle	-12.0723
▁acquaint	-12.0753
▁commerc	-12.0772
▁prentice	-12.0783
iculture	-12.0784
▁controvert	-12.0791
jaquelin	-12.0794
▁unaffect	-12.08
ershadow	-12.0802
▁frangipan	-12.0803
▁inexact	-12.0803
▁mississippi	-12.0803
▁ophthalm	-12.0803
appreciation	-12.0803
conscientious	-12.0803
inquisitive	-12.0803
phlogistic	-12.0803
▁ambuscad	-12.0803
▁antichrist	-12.0803
▁apostrophiz	-12.0803
▁archdeacon	-12.0803
▁bartholome	-12.0803
▁blennerhasset	-12.0803
▁cataclysm	-12.0803
▁circumstantial	-12.0803
▁clairvoyant	-12.0803
▁clxxi	-12.0803
▁coincident	-12.0803
▁connoisseur	-12.0803
▁contemporane	-12.0803
▁daguerreotyp	-12.0803
▁discountenanc	-12.0803
▁discretion	-12.0803
▁disfranchis	-12.0803
▁dithyramb	-12.0803
▁effeminate	-12.0803
▁explosive	-12.0803
▁extravaganc	-12.0803
▁foreshorten	-12.0803
▁genuflect	-12.0803
▁gonfalon	-12.0803
▁greengrocer	-12.0803
▁haberdasher	-12.0803
▁horizontal	-12.0803
▁incommunica	-12.0803
▁incorrigib	-12.0803
▁ineffectual	-12.0803
▁inscrutab	-12.0803
▁inspiration	-12.0803
▁interlocutor	-12.0803
▁intrepid	-12.0803
▁irreconcilab	-12.0803
▁irrelevanc	-12.0803
▁irresolut	-12.0803
▁irrevocab	-12.0803
▁knickerbocker	-12.0803
▁mephistoph	-12.0803
▁metropolitan	-12.0803
▁newfoundland	-12.0803
▁osteopath	-12.0803
▁pecksniff	-12.0803
▁peloponnes	-12.0803
▁perpendicular	-12.0803
▁persuasive	-12.0803
▁plutocrat	-12.0803
▁predetermin	-12.0803
▁resolution	-12.0803
▁rosicruci	-12.0803
▁sepulchre	-12.0803
▁shipbuild	-12.0803
▁sipiagin	-12.0803
▁subdivid	-12.0803
▁substantial	-12.0803
▁superficial	-12.0803
▁synchroniz	-12.0803
▁undistinguish	-12.0803
▁unfortunate	-12.0803
▁unnatural	-12.0803
▁unsuccess	-12.0803
▁winnebago	-12.0803
▁wuertemberg	-12.0803
awatomie	-12.0803
diluvian	-12.0803
nyamwezi	-12.0803
submissive	-12.0803
▁adirondac	-12.0803
▁antiquarian	-12.0803
▁apologetic	-12.0803
▁apprehend	-12.0803
▁balustrad	-12.0803
▁becloud	-12.0803
▁belligerent	-12.0803
▁bespatter	-12.0803
▁bookbinder	-12.0803
▁buccaneer	-12.0803
▁catapult	-12.0803
▁ceremonial	-12.0803
▁corkscrew	-12.0803
▁daydream	-12.0803
▁decemvir	-12.0803
▁demagogue	-12.0803
▁disconsolat	-12.0803
▁disorganis	-12.0803
▁eavesdropp	-12.0803
▁emasculat	-12.0803
▁enshroud	-12.0803
▁epitomiz	-12.0803
▁exacerbat	-12.0803
▁exasperate	-12.0803
▁financier	-12.0803
▁gloucester	-12.0803
▁hiccough	-12.0803
▁horsewhip	-12.0803
▁humphrey	-12.0803
▁immediate	-12.0803
▁immuniz	-12.0803
▁incarcerat	-12.0803
▁incoherenc	-12.0803
▁inculpat	-12.0803
▁indoctrinat	-12.0803
▁influenc	-12.0803
▁infuriat	-12.0803
▁inquisitor	-12.0803
▁inspirit	-12.0803
▁irrepressib	-12.0803
▁irresponsib	-12.0803
▁manhattan	-12.0803
▁manoeuver	-12.0803
▁misappropriat	-12.0803
▁misconceiv	-12.0803
▁misdirect	-12.0803
▁misdoubt	-12.0803
▁narghile	-12.0803
▁nausicaa	-12.0803
▁obstetric	-12.0803
▁palaeontolog	-12.0803
▁pedestrian	-12.0803
▁pragmatist	-12.0803
▁prestidigitat	-12.0803
▁prizefight	-12.0803
▁pseudonym	-12.0803
▁reascend	-12.0803
▁reconnoitr	-12.0803
▁reconstitut	-12.0803
▁rediscover	-12.0803
▁redistribut	-12.0803
▁rehabilitat	-12.0803
▁reintroduc	-12.0803
▁reinvigorat	-12.0803
▁reprehend	-12.0803
▁requisition	-12.0803
▁scientific	-12.0803
▁semaphor	-12.0803
▁silhouett	-12.0803
▁steeplechas	-12.0803
▁superinduc	-12.0803
▁toboggan	-12.0803
▁topgallant	-12.0803
▁undisturb	-12.0803
▁unscrew	-12.0803
▁aggrieve	-12.0803
▁compatriot	-12.0803
▁crucifix	-12.0803
▁difficult	-12.0803
▁expansion	-12.0803
▁exquisite	-12.0803
▁filibuster	-12.0803
▁fugitive	-12.0803
▁indefinit	-12.0803
▁kentuckian	-12.0803
▁mohammad	-12.0803
▁narwhal	-12.0803
▁pellegrin	-12.0803
▁peregrinat	-12.0803
▁resolute	-12.0803
▁reynold	-12.0803
▁suzerain	-12.0803
▁sycophan	-12.0803
▁territorial	-12.0803
▁tranquiliz	-12.0803
▁ungrateful	-12.0803
▁vaishnav	-12.0803
▁administer	-12.0803
▁aggrandiz	-12.0803
▁antwerp	-12.0803
▁bougainvill	-12.0803
▁charioteer	-12.0803
▁disciple	-12.0803
▁epitomis	-12.0803
▁heartbreak	-12.0803
▁outnumber	-12.0803
▁outweigh	-12.0803
▁periphras	-12.0803
▁reorganis	-12.0803
▁reprimand	-12.0803
lieutenant	-12.0803
recognition	-12.0803
▁bacteriolog	-12.0803
▁cobweb	-12.0803
▁crustacea	-12.0803
▁gastronom	-12.0803
▁gilgames	-12.0803
▁intermediat	-12.0803
▁mediaeval	-12.0803
▁nonconformi	-12.0803
▁ojibwa	-12.0803
▁paleontolog	-12.0803
▁phalanster	-12.0803
▁predominat	-12.0803
▁prejudg	-12.0803
▁smoulder	-12.0803
▁uncertain	-12.0803
▁wragg	-12.0803
gillivray	-12.0803
▁complexion	-12.0803
▁crocodil	-12.0803
▁dismember	-12.0803
▁epidemic	-12.0803
▁irrational	-12.0803
▁irritate	-12.0803
▁nibelung	-12.0803
▁overestimat	-12.0803
▁precaution	-12.0803
▁triumvir	-12.0803
▁unexcit	-12.0803
▁visualis	-12.0803
aggressive	-12.0803
opolitan	-12.0803
▁browbeat	-12.0803
▁inveigl	-12.0803
▁librarian	-12.0803
▁toxicolog	-12.0803
▁unconcern	-12.0803
▁blizzard	-12.0803
▁copartner	-12.0803
▁fraternis	-12.0803
▁insipid	-12.0803
▁shrapnel	-12.0803
▁annunciat	-12.0803
▁cleopatr	-12.0803
▁counterbalanc	-12.0803
▁pettifog	-12.0803
▁pharisee	-12.0803
▁pompadour	-12.0803
▁scatterbrain	-12.0803
▁sphinx	-12.0803
▁chetwynd	-12.0803
▁divergenc	-12.0803
▁jephtha	-12.0803
▁mischief	-12.0803
▁offensive	-12.0803
▁recriminat	-12.0803
▁rembrandt	-12.0803
▁rheumatic	-12.0803
▁worcester	-12.0803
▁zigzag	-12.0803
▁encrust	-12.0803
▁hildebrand	-12.0803
▁receipt	-12.0803
▁redecorat	-12.0803
▁testimoni	-12.0803
recompense	-12.0803
▁diligent	-12.0803
▁neuralg	-12.0803
▁safeguard	-12.0803
joscelyn	-12.0803
masculine	-12.0803
ndhlovu	-12.0803
▁inveigh	-12.0803
▁landlord	-12.0803
▁matriculat	-12.0803
▁minstrel	-12.0803
▁shoshone	-12.0803
▁vestibul	-12.0803
▁accredit	-12.0803
▁apparition	-12.0803
▁deficienc	-12.0803
▁outbreak	-12.0803
▁pembroke	-12.0803
▁unrestrain	-12.0803
▁acclaim	-12.0803
▁esmerald	-12.0803
▁example	-12.0803
▁homeopath	-12.0803
▁rajput	-12.0803
▁redoubt	-12.0803
▁trinidad	-12.0803
▁wrastl	-12.0803
▁defense	-12.0803
▁monsignor	-12.0803
▁abolition	-12.0803
▁moccasin	-12.0803
▁psychoanaly	-12.0803
▁scapular	-12.0803
▁tomahawk	-12.0803
▁baltimore	-12.0803
▁cohabit	-12.0803
▁emphasiz	-12.0803
▁hildegard	-12.0803
▁invincib	-12.0803
▁metcalf	-12.0803
▁expurgat	-12.0803
▁nugget	-12.0803
▁ornitholog	-12.0803
▁rationaliz	-12.0803
▁synthetic	-12.0803
similitude	-12.0803
▁carnivor	-12.0803
▁expuls	-12.0803
▁handcuff	-12.0803
▁horticultur	-12.0803
▁pawnbrok	-12.0803
▁pheasant	-12.0803
▁repugnan	-12.0803
▁tompkins	-12.0803
▁autumn	-12.0803
▁concomitan	-12.0803
▁disobey	-12.0803
▁dispirit	-12.0803
▁euclid	-12.0803
▁honeymoon	-12.0803
▁sicilian	-12.0803
▁antagoniz	-12.0803
▁countermarch	-12.0803
▁haarlem	-12.0803
▁tolstoy	-12.0803
▁pascual	-12.0803
▁prophesy	-12.0803
▁alessandr	-12.0803
▁cathedral	-12.0803
▁climax	-12.0803
▁congregational	-12.0803
▁gouverne	-12.0803
fastidious	-12.0803
▁fraternit	-12.0803
▁landsknecht	-12.0803
▁uniformit	-12.0803
▁anacreon	-12.0803
▁between	-12.0803
impulsive	-12.0803
▁casimir	-12.0803
▁celestial	-12.0803
▁disgorg	-12.0803
▁fraction	-12.0803
▁gondolier	-12.0803
symmetrical	-12.0803
▁handicraft	-12.0803
▁occupy	-12.0803
▁undesirabl	-12.0803
▁didactic	-12.0803
▁jocelyn	-12.0803
▁psychiatr	-12.0803
▁skilful	-12.0803
▁wykeham	-12.0803
▁behoove	-12.0803
▁bermuda	-12.0803
▁kilogram	-12.0803
▁tarpaulin	-12.0803
▁desperado	-12.0803
▁drubb	-12.0803
▁friction	-12.0803
▁humbugg	-12.0803
▁quadruped	-12.0803
▁successor	-12.0803
▁overshadow	-12.0803
▁embosom	-12.0803
▁harlequin	-12.0803
▁besmear	-12.0803
▁succumb	-12.0803
▁citoyen	-12.0803
▁thompson	-12.0803
▁decelerat	-12.0803
▁embolden	-12.0803
▁snaffle	-12.0803
▁portugue	-12.0803
extensive	-12.0803
▁freemason	-12.0803
▁nostril	-12.0803
▁systematis	-12.0803
▁concierge	-12.0803
▁preempt	-12.0803
▁unwelcom	-12.0803
▁kreutz	-12.0803
▁anaesthe	-12.0803
▁primitive	-12.0803
▁archangel	-12.0803
▁attorney	-12.0803
▁corrugat	-12.0803
▁ensign	-12.0803
▁fridolin	-12.0803
▁kaffir	-12.0803
▁pavilion	-12.0803
▁landscape	-12.0803
▁oblique	-12.0803
▁unlawful	-12.0803
regretful	-12.0803
▁inexorab	-12.0803
▁pourtray	-12.0803
▁hendrik	-12.0803
▁posterior	-12.0803
▁twilight	-12.0803
▁misspell	-12.0803
▁gladiator	-12.0803
▁overbalanc	-12.0803
privilege	-12.0803
▁abscond	-12.0803
▁activat	-12.0803
▁catechiz	-12.0803
nozzle	-12.0803
▁zimmerman	-12.0803
▁lloyd	-12.0803
▁unclasp	-12.0803
▁furnace	-12.0803
▁letharg	-12.0803
▁auctor	-12.0803
▁impugn	-12.0803
▁systematiz	-12.0803
▁unbosom	-12.0803
▁hamilton	-12.0803
▁intrust	-12.0803
▁recaptur	-12.0803
▁amplifie	-12.0803
▁desiderat	-12.0803
▁tennyson	-12.0803
▁dishevel	-12.0803
▁minturn	-12.0803
▁schimmel	-12.0803
▁dactyl	-12.0803
▁lamarck	-12.0803
▁oxygen	-12.0803
▁scientia	-12.0803
▁slattern	-12.0803
▁festoon	-12.0803
▁immure	-12.0803
▁schuyler	-12.0803
▁dishonest	-12.0803
▁mulatto	-12.0803
▁pulveris	-12.0803
▁artifice	-12.0803
▁confidant	-12.0803
▁illusion	-12.0803
▁malevole	-12.0803
▁mesmeriz	-12.0803
▁somersault	-12.0803
▁promethe	-12.0803
▁unburden	-12.0803
▁fifteen	-12.0803
▁pelasgi	-12.0803
▁thirteen	-12.0803
▁tarascon	-12.0803
▁portugal	-12.0803
▁shroud	-12.0803
▁stalacti	-12.0803
▁uncivil	-12.0803
▁semyonov	-12.0803
▁pedestal	-12.0803
▁stalwart	-12.0803
▁underpinn	-12.0803
▁sapphir	-12.0803
▁submerge	-12.0803
▁psalter	-12.0804
▁eventual	-12.0804
adventurous	-12.0804
▁temperament	-12.0804
▁assuage	-12.0804
▁satisfie	-12.0804
wizzle	-12.0804
▁eunuch	-12.0804
▁blemish	-12.0804
▁indomitab	-12.0804
▁presidenc	-12.0804
▁sponsor	-12.0804
▁abstrus	-12.0804
▁dethrone	-12.0804
▁superadd	-12.0804
▁cardigan	-12.0804
▁smolensk	-12.0804
▁subjoin	-12.0804
▁emanuel	-12.0804
▁dignita	-12.0804
▁omnipoten	-12.0804
▁tennessee	-12.0804
beknown	-12.0804
▁slocum	-12.0804
▁segregat	-12.0804
▁splotch	-12.0804
▁suicide	-12.0804
▁categor	-12.0804
expansive	-12.0804
▁voltaire	-12.0804
▁invariab	-12.0804
▁crotchet	-12.0804
▁euphrasi	-12.0804
▁proletariat	-12.0804
denominational	-12.0804
▁undeceiv	-12.0804
▁tepelen	-12.0804
▁chaplain	-12.0804
▁misguid	-12.0804
▁imogen	-12.0804
▁glister	-12.0804
▁volcano	-12.0804
▁brilliant	-12.0804
▁unbutton	-12.0804
▁citadel	-12.0804
anstruther	-12.0804
▁adroit	-12.0804
▁redoubl	-12.0804
▁enrique	-12.0804
▁fourteen	-12.0804
apposite	-12.0804
▁overreach	-12.0804
▁mirandol	-12.0804
callaghan	-12.0804
▁bhuta	-12.0804
stjern	-12.0804
▁sprocket	-12.0804
▁heracli	-12.0804
▁trinket	-12.0804
▁evidenc	-12.0804
▁vaudevill	-12.0804
▁retouch	-12.0804
▁sacrifici	-12.0804
▁pugilist	-12.0804
▁expand	-12.0804
surmountabl	-12.0804
▁capucin	-12.0804
▁intermingl	-12.0805
▁essential	-12.0805
▁josselin	-12.0805
▁convenienc	-12.0805
▁hyphen	-12.0805
sectarian	-12.0805
▁conversational	-12.0805
▁benumb	-12.0805
▁dastard	-12.0805
▁leasehold	-12.0805
▁fashionabl	-12.0805
▁manfred	-12.0805
▁quadrupl	-12.0805
▁demoniac	-12.0805
▁redfern	-12.0805
afternoon	-12.0805
youthful	-12.0805
▁atroph	-12.0805
▁souffle	-12.0805
▁intimate	-12.0805
▁circassia	-12.0805
▁fecundat	-12.0805
▁exigenc	-12.0805
noxious	-12.0805
▁descant	-12.0805
▁sulpic	-12.0805
histoire	-12.0805
▁pulveriz	-12.0805
mysterious	-12.0805
▁wyandot	-12.0805
▁belittle	-12.0805
obvious	-12.0805
teufel	-12.0805
▁outlast	-12.0805
▁desideri	-12.0805
mesurier	-12.0806
▁meagre	-12.0806
▁moncrief	-12.0806
▁novemb	-12.0806
affectionate	-12.0806
▁standardiz	-12.0806
▁freckle	-12.0806
▁countenanc	-12.0806
▁immovab	-12.0806
▁gnarl	-12.0806
▁irreveren	-12.0806
▁reprint	-12.0806
▁aureole	-12.0806
hentlemen	-12.0806
unctious	-12.0806
▁grammatic	-12.0806
▁cauteriz	-12.0806
▁phryg	-12.0806
▁deflat	-12.0806
▁muscov	-12.0806
▁twentie	-12.0807
▁parvenu	-12.0807
▁flinch	-12.0807
▁dynast	-12.0807
▁hypost	-12.0807
▁brabant	-12.0807
▁iniquit	-12.0807
▁monastic	-12.0807
▁pervade	-12.0807
▁dynamic	-12.0807
▁actualiz	-12.0807
▁myrrh	-12.0807
noodle	-12.0807
▁advocate	-12.0807
▁satroni	-12.0808
▁disprove	-12.0808
▁clumsi	-12.0808
cavallo	-12.0808
▁aztec	-12.0808
▁gilfil	-12.0808
lholland	-12.0808
▁pneumo	-12.0808
▁unsuspicio	-12.0808
▁guelph	-12.0808
▁lxxv	-12.0808
▁sophomor	-12.0809
▁moslem	-12.0809
▁zombi	-12.0809
▁obviat	-12.0809
▁mistreat	-12.0809
▁unstopp	-12.0809
▁paunch	-12.0809
thyroid	-12.0809
▁fascinate	-12.0809
▁tubercul	-12.081
▁scrogg	-12.081
hypnotic	-12.081
▁aemili	-12.081
▁sesterti	-12.081
brugge	-12.081
▁appease	-12.0811
▁phonograph	-12.0811
▁baumgart	-12.0811
schlegel	-12.0811
▁guarantee	-12.0811
▁gratuit	-12.0811
▁fanfaro	-12.0812
▁nastasi	-12.0812
tactful	-12.0812
▁herschel	-12.0813
lemagne	-12.0813
▁sprowl	-12.0813
▁disunit	-12.0813
▁overhear	-12.0813
▁belooch	-12.0814
▁mandolin	-12.0814
▁hajj	-12.0814
argyll	-12.0814
▁leeuw	-12.0814
▁revenue	-12.0815
▁piccol	-12.0815
▁jekyl	-12.0815
▁psamme	-12.0815
▁repetiti	-12.0815
▁swirl	-12.0815
▁raffaell	-12.0815
picturesque	-12.0816
▁aconit	-12.0817
▁lozenge	-12.0817
▁capitaliz	-12.0817
▁margarit	-12.0817
▁inertia	-12.0818
▁wazir	-12.0819
▁klink	-12.0819
▁macaroni	-12.0819
lahoma	-12.082
▁imperturb	-12.082
▁fatalist	-12.082
▁gladiol	-12.082
▁crimm	-12.0821
frightened	-12.0821
▁bobadil	-12.0821
caucasia	-12.0821
emphatic	-12.0821
▁implacab	-12.0822
▁chamberlain	-12.0822
▁proletar	-12.0823
▁silvestr	-12.0823
▁philatel	-12.0824
▁rigolet	-12.0824
▁sociabl	-12.0824
▁arundel	-12.0825
temperature	-12.0825
▁cerebr	-12.0827
gratitude	-12.0827
▁achaea	-12.0829
mutilate	-12.0829
▁poggi	-12.083
urberville	-12.0831
▁bavaria	-12.0832
▁shrug	-12.0833
schedule	-12.0834
▁spheric	-12.0834
▁debouch	-12.0837
▁poltav	-12.0837
▁hysteric	-12.084
nutritio	-12.0841
▁alkali	-12.0842
▁dribbl	-12.0846
therspoon	-12.0847
▁sardinia	-12.0849
▁contadin	-12.0849
▁majestic	-12.0849
zebub	-12.0851
▁surcharg	-12.0852
fragrant	-12.0853
▁distemper	-12.0856
principle	-12.0861
▁recompos	-12.0862
▁sagitta	-12.0864
▁ancestr	-12.0865
nymede	-12.0867
systematic	-12.0867
▁lesbia	-12.0868
molloy	-12.0868
▁manuvr	-12.0869
administration	-12.0869
▁piazz	-12.087
▁tablespoon	-12.087
▁mesquit	-12.0871
▁neurolog	-12.0871
squirrel	-12.0872
▁strumm	-12.0875
▁exclud	-12.0877
▁cosmic	-12.0878
studied	-12.088
bourdin	-12.0885
▁inexhaust	-12.0889
▁depopulat	-12.0889
▁calabr	-12.089
decorative	-12.089
arbuckle	-12.089
▁unsupp	-12.089
▁macedonia	-12.0896
▁conjunctiv	-12.0897
▁productiv	-12.0899
▁montagna	-12.09
▁throttl	-12.0901
couleur	-12.0908
▁conclude	-12.0912
▁nullifie	-12.0913
culloch	-12.0915
▁highfl	-12.0916
▁psychometr	-12.0918
▁japhet	-12.092
gruder	-12.0928
serviceable	-12.0929
▁indiscriminat	-12.093
▁joceli	-12.0948
▁correspondenc	-12.0964
▁higb	-12.0964
▁sanctifie	-12.0967
assertive	-12.0974
briquet	-12.0977
▁archeolog	-12.0984
suggestive	-12.0989
▁overcharg	-12.0992
▁signifie	-12.0994
▁versifie	-12.0995
▁testifie	-12.1001
mackina	-12.1002
coccus	-12.1002
▁subjectiv	-12.1008
acceptable	-12.1013
instructive	-12.1028
tavish	-12.1037
▁consistenc	-12.1047
▁dependenc	-12.1049
▁sembl	-12.1055
umptious	-12.1056
whinnie	-12.1074
boastful	-12.1079
maurice	-12.1083
▁chimbl	-12.1084
▁stemm	-12.1093
feminine	-12.1107
▁analyti	-12.1111
▁reinstate	-12.1132
oceanic	-12.1132
▁telemach	-12.1136
▁horribl	-12.1137
▁andreyev	-12.1146
mouille	-12.1147
humorous	-12.1151
▁teaspoon	-12.1163
▁blabb	-12.1166
▁disagreeabl	-12.1185
creuse	-12.1192
▁flabb	-12.1202
▁partridg	-12.1207
hampstead	-12.124
temporal	-12.1261
▁landgrav	-12.1267
▁meteorolog	-12.1313
▁honourabl	-12.1327
▁straddl	-12.1328
excellent	-12.1351
▁oracul	-12.1358
▁misunderstand	-12.1382
▁agreeabl	-12.1382
jellab	-12.1392
impassion	-12.1395
terroris	-12.1431
▁gintlem	-12.1479
economist	-12.1501
▁overgrow	-12.1514
imagination	-12.1537
corporeal	-12.1571
▁disrespect	-12.1573
▁receptiv	-12.16
▁evaluat	-12.1615
▁baptiz	-12.172
▁overweigh	-12.1771
▁ideolog	-12.1794
▁carissim	-12.1806
developed	-12.1901
▁criminolog	-12.1916
▁desirabl	-12.1973
▁reconsider	-12.2196
discipline	-12.2405
adulterate	-12.2509
▁honorabl	-12.2527
▁coalesce	-12.2592
absorbed	-12.2595
▁unconventional	-12.2683
sufferabl	-12.2859
▁significat	-12.2981
baptize	-12.2989
consideration	-12.309
▁bumme	-12.3156
▁enfranchis	-12.3224
populate	-12.3248
methodical	-12.3329
tempered	-12.335
▁ippolit	-12.3421
advisable	-12.3423
▁justificat	-12.3439
xxxvi	-12.3486
respectable	-12.3656
voluntary	-12.3719
comprehension	-12.3807
▁disreput	-12.392
occupied	-12.3935
curving	-12.3942
discriminating	-12.4009
▁disproportion	-12.4012
▁unimpress	-12.4133
▁therapeut	-12.4136
twhistle	-12.4136
ulenspiegel	-12.4136
▁abercrombie	-12.4136
▁accomplice	-12.4136
▁agamemnon	-12.4136
▁arbuthnot	-12.4136
▁astronomer	-12.4136
▁atmosphere	-12.4136
▁beaudrillart	-12.4136
▁benefactor	-12.4136
▁bootblack	-12.4136
▁breckenridge	-12.4136
▁carmichael	-12.4136
▁caterpillar	-12.4136
▁chalicodoma	-12.4136
▁chipmunk	-12.4136
▁chuzzlewit	-12.4136
▁commonwealth	-12.4136
▁conyngham	-12.4136
▁cowpuncher	-12.4136
▁crittenden	-12.4136
▁cruikshank	-12.4136
▁dalrymple	-12.4136
▁delinquent	-12.4136
▁disjuncti	-12.4136
▁dostoievsk	-12.4136
▁elzevir	-12.4136
▁ethiopian	-12.4136
▁faulkner	-12.4136
▁fauntleroy	-12.4136
▁fitzgibbon	-12.4136
▁gambusino	-12.4136
▁gibraltar	-12.4136
▁gradgrind	-12.4136
▁graevenitz	-12.4136
▁granddaughter	-12.4136
▁grandmamma	-12.4136
▁grasshopper	-12.4136
▁gravedigger	-12.4136
▁hargreave	-12.4136
▁hatshepsu	-12.4136
▁hippodrome	-12.4136
▁hottentot	-12.4136
▁illustrator	-12.4136
▁immigrant	-12.4136
▁jerusalem	-12.4136
▁juggernaut	-12.4136
▁kennyfeck	-12.4136
▁legionnaire	-12.4136
▁linendraper	-12.4136
▁malefactor	-12.4136
▁marmaduke	-12.4136
▁merriweather	-12.4136
▁metternich	-12.4136
▁montgomery	-12.4136
▁murgatroyd	-12.4136
▁neapolitan	-12.4136
▁neophyte	-12.4136
▁nepomucen	-12.4136
▁nietzsche	-12.4136
▁northumberland	-12.4136
▁oblivion	-12.4136
▁ochterlony	-12.4136
▁pastrycook	-12.4136
▁pathfinder	-12.4136
▁peregrine	-12.4136
▁pestalozzi	-12.4136
▁phoenician	-12.4136
▁pomuchelskopp	-12.4136
▁practitioner	-12.4136
▁predecessor	-12.4136
▁recipient	-12.4136
▁restaurateur	-12.4136
▁robespierre	-12.4136
▁rochefoucaul	-12.4136
▁roosevelt	-12.4136
▁schoolteacher	-12.4136
▁seamstress	-12.4136
▁spendthrift	-12.4136
▁stepdaughter	-12.4136
▁stuyvesant	-12.4136
▁thackeray	-12.4136
▁trevennack	-12.4136
▁troubadour	-12.4136
▁tschaikovsk	-12.4136
▁turrentine	-12.4136
▁waynflete	-12.4136
▁wednesday	-12.4136
▁whippoorwill	-12.4136
▁wilberforce	-12.4136
accommodating	-12.4136
efficacious	-12.4136
illustration	-12.4136
mbassadress	-12.4136
sympathizing	-12.4136
unconstitutional	-12.4136
▁abstemious	-12.4136
▁accommodate	-12.4136
▁aggravate	-12.4136
▁aggravatin	-12.4136
▁animadvert	-12.4136
▁apostrophis	-12.4136
▁applicant	-12.4136
▁archipelago	-12.4136
▁atmospheric	-12.4136
▁bamboozl	-12.4136
▁begrudge	-12.4136
▁benefactress	-12.4136
▁besprinkl	-12.4136
▁bolshevik	-12.4136
▁bolshevis	-12.4136
▁bridegroom	-12.4136
▁bureaucrat	-12.4136
▁camouflag	-12.4136
▁carnarvon	-12.4136
▁cinematograph	-12.4136
▁clxxv	-12.4136
▁commodious	-12.4136
▁conglomerate	-12.4136
▁conquistador	-12.4136
▁consecutive	-12.4136
▁conspicuous	-12.4136
▁consubstantia	-12.4136
▁contemptibl	-12.4136
▁contemptuous	-12.4136
▁convolvul	-12.4136
▁cornucopia	-12.4136
▁cosmopolitan	-12.4136
▁cuchulain	-12.4136
▁dematerializ	-12.4136
▁demonstrative	-12.4136
▁diaphragm	-12.4136
▁diminutive	-12.4136
▁discommod	-12.4136
▁discrepan	-12.4136
▁discursive	-12.4136
▁disingenuous	-12.4136
▁disobedien	-12.4136
▁dispassionate	-12.4136
▁disremember	-12.4136
▁dramaturg	-12.4136
▁duodecim	-12.4136
▁efficient	-12.4136
▁enchantress	-12.4136
▁epileptic	-12.4136
▁epithalami	-12.4136
▁equilibr	-12.4136
▁escritoir	-12.4136
▁escutcheon	-12.4136
▁excerpt	-12.4136
▁excogitat	-12.4136
▁excruciati	-12.4136
▁exhilarate	-12.4136
▁expedient	-12.4136
▁explicit	-12.4136
▁expropriat	-12.4136
▁fractious	-12.4136
▁gimcrack	-12.4136
▁gobernador	-12.4136
▁grandiloquen	-12.4136
▁homosexual	-12.4136
▁hypodermic	-12.4136
▁illustrious	-12.4136
▁illustrissim	-12.4136
▁immaculate	-12.4136
▁immaterial	-12.4136
▁immodest	-12.4136
▁inadequate	-12.4136
▁inappropriate	-12.4136
▁inarticulate	-12.4136
▁inconceivab	-12.4136
▁inconsiderate	-12.4136
▁inconspicuous	-12.4136
▁incorrect	-12.4136
▁incredulous	-12.4136
▁indefatigab	-12.4136
▁independenc	-12.4136
▁indestructib	-12.4136
▁indissolub	-12.4136
▁industrious	-12.4136
▁ineffective	-12.4136
▁inefficient	-12.4136
▁infelicit	-12.4136
▁inflexib	-12.4136
▁injudicious	-12.4136
▁innuendo	-12.4136
▁inoffensive	-12.4136
▁inopportune	-12.4136
▁instantaneous	-12.4136
▁insubordinat	-12.4136
▁intemperate	-12.4136
▁interrogative	-12.4136
▁intoxicate	-12.4136
▁invertebrat	-12.4136
▁invulnerab	-12.4136
▁jabberwock	-12.4136
▁jurisdiction	-12.4136
▁kennebunk	-12.4136
▁konstantin	-12.4136
▁kromitzk	-12.4136
▁lascivious	-12.4136
▁latitudinarian	-12.4136
▁lexicograph	-12.4136
▁logarithm	-12.4136
▁lugubrious	-12.4136
▁lukewarm	-12.4136
▁lxxxi	-12.4136
▁magniloquen	-12.4136
▁mcclur	-12.4136
▁menshevik	-12.4136
▁mezzotint	-12.4136
▁miraculous	-12.4136
▁misapprehend	-12.4136
▁mischievous	-12.4136
▁misconduct	-12.4136
▁miscreant	-12.4136
▁misericordia	-12.4136
▁misogynist	-12.4136
▁mispronounc	-12.4136
▁moustachio	-12.4136
▁multiplic	-12.4136
▁mustachio	-12.4136
▁narraganset	-12.4136
▁oblivious	-12.4136
▁obsequious	-12.4136
▁outflank	-12.4136
▁overcloud	-12.4136
▁paphlagonia	-12.4136
▁paroxysm	-12.4136
▁peccadillo	-12.4136
▁perfunctor	-12.4136
▁phylogen	-12.4136
▁plagiariz	-12.4136
▁preposterous	-12.4136
▁presumptuous	-12.4136
▁pterodactyl	-12.4136
▁pusillanim	-12.4136
▁pythagorean	-12.4136
▁radioactiv	-12.4136
▁ratiocinati	-12.4136
▁rattlesnake	-12.4136
▁rechristen	-12.4136
▁recognizan	-12.4136
▁reconnoiter	-12.4136
▁refurnish	-12.4136
▁reluctanc	-12.4136
▁remonstrant	-12.4136
▁remonstrate	-12.4136
▁responsive	-12.4136
▁revictual	-12.4136
▁sabbatarian	-12.4136
▁sanctimonious	-12.4136
▁sansculott	-12.4136
▁saxifrag	-12.4136
▁scandinavia	-12.4136
▁shamefaced	-12.4136
▁shoplift	-12.4136
▁significanc	-12.4136
▁simultaneous	-12.4136
▁sniatynsk	-12.4136
▁spontaneous	-12.4136
▁stalagmit	-12.4136
▁stigmatise	-12.4136
▁straightforward	-12.4136
▁superabundan	-12.4136
▁supercilious	-12.4136
▁superfluous	-12.4136
▁supernaturalist	-12.4136
▁superstitious	-12.4136
▁surreptitious	-12.4136
▁swashbuckl	-12.4136
▁tabernacle	-12.4136
▁transmigrate	-12.4136
▁troglodyt	-12.4136
▁unattractive	-12.4136
▁unceremonious	-12.4136
▁uncommunicat	-12.4136
▁uncompromis	-12.4136
▁uneventful	-12.4136
▁unexceptiona	-12.4136
▁unfrequent	-12.4136
▁unintelligib	-12.4136
▁unphilosophic	-12.4136
▁unpretentious	-12.4136
▁unpunctua	-12.4136
▁unrecognis	-12.4136
▁unreproach	-12.4136
▁unresponsive	-12.4136
▁unsatisfactor	-12.4136
▁unsubstantia	-12.4136
▁unsuspectin	-12.4136
▁untruthful	-12.4136
▁unwholesome	-12.4136
▁uproarious	-12.4136
▁utilitarian	-12.4136
▁vainglorious	-12.4136
▁vegetarian	-12.4136
▁vindictive	-12.4136
▁voluptuous	-12.4136
▁zoroastrian	-12.4136
phosphate	-12.4136
▁algonquin	-12.4136
▁apothecar	-12.4136
▁appreciate	-12.4136
▁areopagit	-12.4136
▁bifurcat	-12.4136
▁bobolink	-12.4136
▁bonaparte	-12.4136
▁carmagnol	-12.4136
▁cephalopod	-12.4136
▁commiserate	-12.4136
▁conjuror	-12.4136
▁contemporar	-12.4136
▁cuadrill	-12.4136
▁dalahaide	-12.4136
▁demobiliz	-12.4136
▁diagnostic	-12.4136
▁disassociat	-12.4136
▁disoblig	-12.4136
▁excrement	-12.4136
▁finkelstein	-12.4136
▁fitzgerald	-12.4136
▁fraeulein	-12.4136
▁frobisher	-12.4136
▁hacendero	-12.4136
▁huguenot	-12.4136
▁impregnab	-12.4136
▁inadvertenc	-12.4136
▁inconsistenc	-12.4136
▁indescribabl	-12.4136
▁indifferenc	-12.4136
▁infinitesimal	-12.4136
▁infrequen	-12.4136
▁kerguelen	-12.4136
▁leffingwell	-12.4136
▁micawber	-12.4136
▁misgovern	-12.4136
▁montmorency	-12.4136
▁muezzin	-12.4136
▁neoplatoni	-12.4136
▁neurastheni	-12.4136
▁obfuscat	-12.4136
▁orgreave	-12.4136
▁orthodox	-12.4136
▁plantagenet	-12.4136
▁preponderate	-12.4136
▁reassembl	-12.4136
▁recognize	-12.4136
▁rensselaer	-12.4136
▁saturday	-12.4136
▁spheroid	-12.4136
▁stebbing	-12.4136
▁steinrueck	-12.4136
▁thaumaturg	-12.4136
▁themistocle	-12.4136
▁unaccountabl	-12.4136
▁unemploy	-12.4136
▁unparallel	-12.4136
▁urquhart	-12.4136
▁vanderbilt	-12.4136
▁vladimir	-12.4136
▁woodchopper	-12.4136
▁zemindar	-12.4136
esculapi	-12.4136
fulfilment	-12.4136
gillicuddy	-12.4136
sympathising	-12.4136
▁apotheos	-12.4136
▁armadillo	-12.4136
▁bonaventur	-12.4136
▁ceremonious	-12.4136
▁chloroform	-12.4136
▁consumptive	-12.4136
▁credulous	-12.4136
▁detrimental	-12.4136
▁dryfoos	-12.4136
▁enormous	-12.4136
▁esculent	-12.4136
▁expensive	-12.4136
▁foppish	-12.4136
▁fortescue	-12.4136
▁hartebeest	-12.4136
▁hoskuld	-12.4136
▁impetuous	-12.4136
▁inconclusive	-12.4136
▁intrusive	-12.4136
▁intuitive	-12.4136
▁invidious	-12.4136
▁involut	-12.4136
▁jahangir	-12.4136
▁kriemhild	-12.4136
▁lycanthrop	-12.4136
▁malcolm	-12.4136
▁mistranslat	-12.4136
▁pharaoh	-12.4136
▁pontifex	-12.4136
▁pretentious	-12.4136
▁promiscuous	-12.4136
▁querulous	-12.4136
▁republish	-12.4136
▁revitaliz	-12.4136
▁scrimmag	-12.4136
▁sententious	-12.4136
▁september	-12.4136
▁sympathetic	-12.4136
▁synchronis	-12.4136
▁unburthen	-12.4136
▁ungraceful	-12.4136
▁unseasonabl	-12.4136
▁unskilful	-12.4136
▁untranslat	-12.4136
▁upbuild	-12.4136
▁violoncell	-12.4136
▁vraibleusia	-12.4136
confraternit	-12.4136
▁abrupt	-12.4136
▁aggrandise	-12.4136
▁agnostic	-12.4136
▁aldrovand	-12.4136
▁bounteous	-12.4136
▁celtiberia	-12.4136
▁expedienc	-12.4136
▁hemstitch	-12.4136
▁impenetrab	-12.4136
▁inexpressibl	-12.4136
▁inseparabl	-12.4136
▁marsupial	-12.4136
▁microcosm	-12.4136
▁nonplus	-12.4136
▁peremptor	-12.4136
▁pitchfork	-12.4136
▁pursuivant	-12.4136
▁retrogressi	-12.4136
▁stupendous	-12.4136
▁unbecoming	-12.4136
▁undutiful	-12.4136
▁unrighteous	-12.4136
▁vindicator	-12.4136
▁visigoth	-12.4136
esgrignon	-12.4136
hospitality	-12.4136
ordonnance	-12.4136
▁acarnania	-12.4136
▁amethyst	-12.4136
▁aristotelian	-12.4136
▁authoritative	-12.4136
▁bonapartis	-12.4136
▁botticelli	-12.4136
▁brabazon	-12.4136
▁caldigate	-12.4136
▁choiseul	-12.4136
▁commodore	-12.4136
▁competitor	-12.4136
▁consumption	-12.4136
▁cylinder	-12.4136
▁cyrenaic	-12.4136
▁decollet	-12.4136
▁dilapidat	-12.4136
▁dirigible	-12.4136
▁earthquake	-12.4136
▁eclectic	-12.4136
▁embrasure	-12.4136
▁emigrant	-12.4136
▁equestrian	-12.4136
▁follingsbee	-12.4136
▁frankfurt	-12.4136
▁galbraith	-12.4136
▁gascoyne	-12.4136
▁gillespie	-12.4136
▁gueldmar	-12.4136
▁hidalgo	-12.4136
▁hierophant	-12.4136
▁humanitarian	-12.4136
▁jervaise	-12.4136
▁metropolis	-12.4136
▁misbeliev	-12.4136
▁moneylender	-12.4136
▁montezuma	-12.4136
▁norwegian	-12.4136
▁offspring	-12.4136
▁precipice	-12.4136
▁preliminar	-12.4136
▁redbreast	-12.4136
▁reexamin	-12.4136
▁rejoicing	-12.4136
▁renegade	-12.4136
▁renfrew	-12.4136
▁restaurant	-12.4136
▁rockefeller	-12.4136
▁soothsayer	-12.4136
▁squeamish	-12.4136
▁stevedore	-12.4136
▁stockbroker	-12.4136
▁subaltern	-12.4136
▁surplice	-12.4136
▁surplus	-12.4136
▁twelvemonth	-12.4136
▁unforgive	-12.4136
▁ungrudg	-12.4136
▁vavasour	-12.4136
▁woodpecker	-12.4136
▁wrandall	-12.4136
▁yosemite	-12.4136
▁zephania	-12.4136
▁abdullah	-12.4136
▁accompt	-12.4136
▁anthropophag	-12.4136
▁barneveld	-12.4136
▁befuddle	-12.4136
▁besmirch	-12.4136
▁cataract	-12.4136
▁chanticleer	-12.4136
▁circumspect	-12.4136
▁clayhanger	-12.4136
▁conversazion	-12.4136
▁fandango	-12.4136
▁gnaedige	-12.4136
▁hauberk	-12.4136
▁hoodwink	-12.4136
▁inuendo	-12.4136
▁kangaroo	-12.4136
▁ludicrous	-12.4136
▁malaprop	-12.4136
▁occupant	-12.4136
▁ogilvie	-12.4136
▁outgeneral	-12.4136
▁phoenix	-12.4136
▁porcupine	-12.4136
▁powhatan	-12.4136
▁skittish	-12.4136
▁succinct	-12.4136
▁tlascala	-12.4136
▁tragedian	-12.4136
▁vasudev	-12.4136
▁wychecombe	-12.4136
dextrous	-12.4136
▁almohad	-12.4136
▁archduke	-12.4136
▁benjamin	-12.4136
▁contagious	-12.4136
▁demonstrate	-12.4136
▁denationaliz	-12.4136
▁denbigh	-12.4136
▁dumfound	-12.4136
▁enterpriz	-12.4136
▁ingenuous	-12.4136
▁jezebel	-12.4136
▁kleptomania	-12.4136
▁knyght	-12.4136
